{"[PAD]": 0, "[UNK]": 1, ".": 2, "the": 3, "it": 4, "and": 5, "i": 6, "a": 7, ",": 8, "to": 9, "this": 10, "my": 11, "for": 12, "is": 13, "'": 14, "but": 15, "of": 16, "on": 17, "not": 18, "phone": 19, "in": 20, "great": 21, "with": 22, "t": 23, "that": 24, "very": 25, "!": 26, "good": 27, "was": 28, "s": 29, "have": 30, "so": 31, "as": 32, "you": 33, "like": 34, "one": 35, "well": 36, "just": 37, "case": 38, "product": 39, "be": 40, "if": 41, "would": 42, "all": 43, "##s": 44, "at": 45, "can": 46, "are": 47, "when": 48, "will": 49, "nice": 50, "from": 51, "love": 52, "or": 53, "had": 54, "out": 55, "has": 56, "no": 57, "use": 58, "get": 59, "really": 60, "-": 61, "your": 62, "up": 63, "only": 64, "fit": 65, "price": 66, "than": 67, ")": 68, "an": 69, "does": 70, "me": 71, "more": 72, "works": 73, "off": 74, "they": 75, "time": 76, "(": 77, "what": 78, "because": 79, "don": 80, "fits": 81, "quality": 82, "also": 83, "other": 84, "little": 85, "about": 86, "too": 87, "easy": 88, "do": 89, "perfect": 90, "much": 91, "there": 92, "recommend": 93, "got": 94, "back": 95, "its": 96, "bought": 97, "doesn": 98, "which": 99, "after": 100, "still": 101, "screen": 102, "looks": 103, "buy": 104, "even": 105, "any": 106, "work": 107, "m": 108, "some": 109, "ve": 110, "did": 111, "am": 112, "/": 113, "2": 114, "put": 115, "perfectly": 116, ":": 117, "now": 118, "better": 119, "made": 120, "used": 121, "5": 122, "first": 123, "them": 124, "way": 125, "these": 126, "didn": 127, "while": 128, "hard": 129, "over": 130, "by": 131, "using": 132, "how": 133, "pretty": 134, "\"": 135, "3": 136, "without": 137, "need": 138, "two": 139, "around": 140, "then": 141, "look": 142, "been": 143, "looking": 144, "again": 145, "4": 146, "make": 147, "plastic": 148, "cover": 149, "few": 150, "new": 151, "right": 152, "protection": 153, "thing": 154, "bit": 155, "came": 156, "could": 157, "feel": 158, "take": 159, "easily": 160, "##y": 161, "best": 162, "enough": 163, "item": 164, "another": 165, "excellent": 166, "far": 167, "received": 168, "want": 169, "go": 170, "happy": 171, "see": 172, "iphone": 173, "into": 174, "##r": 175, "keep": 176, "review": 177, "cases": 178, "since": 179, "though": 180, "lot": 181, "cheap": 182, "sure": 183, "seems": 184, "same": 185, "##t": 186, "makes": 187, "however": 188, "down": 189, "think": 190, "fine": 191, "small": 192, "long": 193, "were": 194, "before": 195, "##g": 196, "know": 197, "purchased": 198, "phones": 199, "protector": 200, "purchase": 201, "charge": 202, "definitely": 203, "1": 204, "different": 205, "color": 206, "most": 207, "hold": 208, "6": 209, "many": 210, "times": 211, "fast": 212, "problem": 213, "re": 214, "should": 215, "comes": 216, "##e": 217, "##ing": 218, "never": 219, "something": 220, "money": 221, "find": 222, "say": 223, "where": 224, "being": 225, "going": 226, "side": 227, "feels": 228, "protect": 229, "overall": 230, "actually": 231, "give": 232, "design": 233, "##ed": 234, "day": 235, "top": 236, "worth": 237, "awesome": 238, "expected": 239, "always": 240, "&": 241, "last": 242, "part": 243, "##ly": 244, "big": 245, "worked": 246, "ok": 247, "come": 248, "getting": 249, "won": 250, "once": 251, "having": 252, "able": 253, "we": 254, "ordered": 255, "months": 256, "?": 257, "stars": 258, "bad": 259, "un": 260, "job": 261, "amazon": 262, "dropped": 263, "their": 264, "both": 265, "d": 266, "every": 267, "exactly": 268, "place": 269, "##er": 270, ";": 271, "highly": 272, "super": 273, "needed": 274, "##d": 275, "who": 276, "tried": 277, "rubber": 278, "galaxy": 279, "ll": 280, "$": 281, "durable": 282, "wanted": 283, "through": 284, "sturdy": 285, "ever": 286, "days": 287, "charging": 288, "free": 289, "may": 290, "pocket": 291, "device": 292, "thought": 293, "plus": 294, "she": 295, "everything": 296, "drop": 297, "found": 298, "isn": 299, "samsung": 300, "yet": 301, "light": 302, "front": 303, "issue": 304, "issues": 305, "took": 306, "less": 307, "try": 308, "buttons": 309, "couple": 310, "quite": 311, "note": 312, "black": 313, "hand": 314, "almost": 315, "wish": 316, "order": 317, "several": 318, "clear": 319, "touch": 320, "button": 321, "protects": 322, "already": 323, "size": 324, "high": 325, "anything": 326, "thin": 327, "away": 328, "those": 329, "bulky": 330, "itself": 331, "bottom": 332, "extra": 333, "power": 334, "he": 335, "cut": 336, "remove": 337, "quickly": 338, "reviews": 339, "cell": 340, "problems": 341, "arrived": 342, "loves": 343, "others": 344, "wife": 345, "here": 346, "said": 347, "people": 348, "piece": 349, "broke": 350, "thanks": 351, "glass": 352, "old": 353, "things": 354, "probably": 355, "thank": 356, "deal": 357, "protective": 358, "shipping": 359, "grip": 360, "seller": 361, "camera": 362, "second": 363, "inside": 364, "own": 365, "material": 366, "plug": 367, "nothing": 368, "##l": 369, "why": 370, "her": 371, "kind": 372, "anyone": 373, "battery": 374, "pro": 375, "might": 376, "described": 377, "update": 378, "full": 379, "weeks": 380, "edges": 381, "type": 382, "loved": 383, "wasn": 384, "went": 385, "honest": 386, "%": 387, "either": 388, "working": 389, "gets": 390, "protected": 391, "edge": 392, "slim": 393, "buying": 394, "holds": 395, "blue": 396, "week": 397, "brand": 398, "completely": 399, "box": 400, "year": 401, "##nu": 402, "mine": 403, "install": 404, "wouldn": 405, "fact": 406, "reason": 407, "star": 408, "solid": 409, "difficult": 410, "simple": 411, "10": 412, "con": 413, "such": 414, "picture": 415, "longer": 416, "add": 417, "seem": 418, "especially": 419, "products": 420, "end": 421, "car": 422, "under": 423, "tell": 424, "covers": 425, "strong": 426, "until": 427, "port": 428, "month": 429, "stand": 430, "life": 431, "soft": 432, "stick": 433, "let": 434, "three": 435, "haven": 436, "absolutely": 437, "tight": 438, "nicely": 439, "left": 440, "amazing": 441, "instead": 442, "colors": 443, "fall": 444, "set": 445, "value": 446, "real": 447, "trying": 448, "gave": 449, "needs": 450, "easier": 451, "stay": 452, "keeps": 453, "hands": 454, "goes": 455, "wrong": 456, "ones": 457, "company": 458, "quick": 459, "scratches": 460, "break": 461, "liked": 462, "open": 463, "due": 464, "+": 465, "help": 466, "replacement": 467, "sides": 468, "cool": 469, "pleased": 470, "heavy": 471, "maybe": 472, "thick": 473, "return": 474, "years": 475, "although": 476, "original": 477, "service": 478, "must": 479, "clean": 480, "between": 481, "decent": 482, "otter": 483, "slightly": 484, "smooth": 485, "his": 486, "done": 487, "disappointed": 488, "head": 489, "##p": 490, "change": 491, "least": 492, "100": 493, "exchange": 494, "##4": 495, "cost": 496, "low": 497, "replace": 498, "discount": 499, "usb": 500, "expensive": 501, "st": 502, "built": 503, "extremely": 504, "face": 505, "provides": 506, "normal": 507, "making": 508, "else": 509, "started": 510, "cable": 511, "bulk": 512, "close": 513, "read": 514, "large": 515, "advertised": 516, "provide": 517, "home": 518, "pay": 519, "opinion": 520, "damage": 521, "rec": 522, "each": 523, "point": 524, "drops": 525, "etc": 526, "gives": 527, "our": 528, "takes": 529, "holding": 530, "within": 531, "recommended": 532, "beautiful": 533, "volume": 534, "b": 535, "im": 536, "daughter": 537, "##box": 538, "line": 539, "card": 540, "devices": 541, "couldn": 542, "##able": 543, "secure": 544, "loose": 545, "gift": 546, "##o": 547, "ref": 548, "taking": 549, "short": 550, "##5": 551, "scratch": 552, "class": 553, "white": 554, "expect": 555, "7": 556, "next": 557, "weight": 558, "carry": 559, "looked": 560, "included": 561, "di": 562, "experience": 563, "cute": 564, "yes": 565, "sometimes": 566, "##phone": 567, "satisfied": 568, "access": 569, "otherwise": 570, "customer": 571, "*": 572, "leave": 573, "package": 574, "putting": 575, "allows": 576, "hope": 577, "guess": 578, "fl": 579, "surface": 580, "says": 581, "husband": 582, "ports": 583, "whole": 584, "feature": 585, "##sed": 586, "##x": 587, "properly": 588, "similar": 589, "wear": 590, "8": 591, "turn": 592, "someone": 593, "cannot": 594, "pictures": 595, "test": 596, "rather": 597, "=": 598, "style": 599, "slide": 600, "micro": 601, "onto": 602, "past": 603, "against": 604, "##3": 605, "##sy": 606, "fully": 607, "decided": 608, "store": 609, "##im": 610, "show": 611, "apple": 612, "finger": 613, "seen": 614, "sent": 615, "##bia": 616, "finally": 617, "dust": 618, "myself": 619, "press": 620, "doing": 621, "designed": 622, "apart": 623, "often": 624, "please": 625, "provided": 626, "half": 627, "installed": 628, "video": 629, "together": 630, "cracked": 631, "given": 632, "okay": 633, "favorite": 634, "l": 635, "o": 636, "clip": 637, "slip": 638, "instructions": 639, "held": 640, "son": 641, "g": 642, "paid": 643, "broken": 644, "##6": 645, "##h": 646, "glad": 647, "##8": 648, "##w": 649, "##on": 650, "hours": 651, "helps": 652, "version": 653, "mind": 654, "packaging": 655, "amount": 656, "offers": 657, "friend": 658, "room": 659, "usually": 660, "worry": 661, "simply": 662, "kept": 663, "com": 664, "receive": 665, "corners": 666, "added": 667, "purse": 668, "start": 669, "impressed": 670, "n": 671, "unfortunately": 672, "##f": 673, "##7": 674, "cord": 675, "charges": 676, "comfortable": 677, "along": 678, "believe": 679, "sleek": 680, "flat": 681, "##v": 682, "soon": 683, "ago": 684, "huge": 685, "during": 686, "unless": 687, "stays": 688, "later": 689, "handy": 690, "id": 691, "watch": 692, "push": 693, "minutes": 694, "##ish": 695, "save": 696, "unit": 697, "air": 698, "area": 699, "fairly": 700, "everyone": 701, "falls": 702, "friends": 703, "compared": 704, "today": 705, "fell": 706, "careful": 707, "anyway": 708, "allow": 709, "noticed": 710, "finish": 711, "outside": 712, "larger": 713, "useful": 714, "stuff": 715, "complaints": 716, ">": 717, "smaller": 718, "data": 719, "person": 720, "features": 721, "delivery": 722, "safe": 723, "snap": 724, "non": 725, "mini": 726, "silicon": 727, "idea": 728, "protecting": 729, "##0": 730, "speaker": 731, "uses": 732, "##es": 733, "ad": 734, "multiple": 735, "available": 736, "##ged": 737, "waste": 738, "wonderful": 739, "supposed": 740, "returned": 741, "<": 742, "helpful": 743, "metal": 744, "##k": 745, "items": 746, "rate": 747, "ended": 748, "adds": 749, "fantastic": 750, "care": 751, "covered": 752, "actual": 753, "attached": 754, "charged": 755, "slippery": 756, "bright": 757, "lasted": 758, "offer": 759, "30": 760, "purpose": 761, "pull": 762, "means": 763, "##z": 764, "complaint": 765, "model": 766, "corner": 767, "bubbles": 768, "true": 769, "water": 770, "shows": 771, "based": 772, "coming": 773, "20": 774, "prefer": 775, "##2": 776, "pack": 777, "previous": 778, "run": 779, "holder": 780, "texture": 781, "name": 782, "family": 783, "cheaper": 784, "giving": 785, "cause": 786, "cr": 787, "except": 788, "lo": 789, "rating": 790, "tough": 791, "##yl": 792, "option": 793, "h": 794, "space": 795, "annoying": 796, "switch": 797, "description": 798, "matter": 799, "barely": 800, "likes": 801, "bigger": 802, "course": 803, "regular": 804, "apply": 805, "call": 806, "e": 807, "felt": 808, "entire": 809, "red": 810, "smart": 811, "poor": 812, "totally": 813, "us": 814, "important": 815, "standard": 816, "compliment": 817, "tempered": 818, "replaced": 819, "warrant": 820, "smartphone": 821, "function": 822, "pieces": 823, "above": 824, "ear": 825, "pink": 826, "hook": 827, "convenient": 828, "##c": 829, "notice": 830, "surprised": 831, "near": 832, "twice": 833, "daily": 834, "dropping": 835, "keeping": 836, "android": 837, "purchasing": 838, "cables": 839, "##m": 840, "jack": 841, "immediately": 842, "four": 843, "beat": 844, "installation": 845, "night": 846, "opening": 847, "mobile": 848, "##bs": 849, "owned": 850, "bag": 851, "difference": 852, "lost": 853, "hit": 854, "scratched": 855, "leather": 856, "removed": 857, "0": 858, "securely": 859, "gotten": 860, "support": 861, "##ct": 862, "tested": 863, "tiny": 864, "saw": 865, "shell": 866, "build": 867, "five": 868, "adapt": 869, "move": 870, "chargers": 871, "seemed": 872, "send": 873, "pick": 874, "stuck": 875, "future": 876, "placed": 877, "hole": 878, "functional": 879, "feeling": 880, "##fi": 881, "minor": 882, "tablet": 883, "magnet": 884, "thicker": 885, "##a": 886, "check": 887, "cards": 888, "flexible": 889, "##ness": 890, "hot": 891, "constantly": 892, "sound": 893, "single": 894, "link": 895, "##phones": 896, "saved": 897, "_": 898, "##n": 899, "fair": 900, "contact": 901, "play": 902, "negative": 903, "running": 904, "minimal": 905, "spot": 906, "unlike": 907, "credit": 908, "none": 909, "shipped": 910, "market": 911, "appears": 912, "plan": 913, "aren": 914, "choice": 915, "crack": 916, "wireless": 917, "possible": 918, "falling": 919, "9": 920, "user": 921, "du": 922, "belt": 923, "##outs": 924, "ask": 925, "likely": 926, "##mer": 927, "lip": 928, "glove": 929, "photos": 930, "main": 931, "15": 932, "trouble": 933, "reading": 934, "fix": 935, "pockets": 936, "turned": 937, "x": 938, "fan": 939, "correctly": 940, "wallet": 941, "higher": 942, "rest": 943, "lots": 944, "##tooth": 945, "inexpensive": 946, "connection": 947, "positive": 948, "hr": 949, "wall": 950, "u": 951, "12": 952, "ie": 953, "holes": 954, "parts": 955, "slot": 956, "display": 957, "##ers": 958, "stop": 959, "manufacturer": 960, "##und": 961, "lightweight": 962, "useless": 963, "nearly": 964, "anymore": 965, "music": 966, "including": 967, "##pl": 968, "stopped": 969, "lose": 970, "##py": 971, "ipad": 972, "considering": 973, "recently": 974, "wait": 975, "ut": 976, "w": 977, "removing": 978, "block": 979, "level": 980, "##ng": 981, "below": 982, "##bility": 983, "condition": 984, "spend": 985, "mo": 986, "personal": 987, "outer": 988, "house": 989, "##pu": 990, "honestly": 991, "bumper": 992, "across": 993, "fitting": 994, "connect": 995, "construction": 996, "pop": 997, "testing": 998, "kids": 999, "slight": 1000, "number": 1001, "position": 1002, "calls": 1003, "gold": 1004, "excel": 1005, "nexus": 1006, "shape": 1007, "attach": 1008, "plenty": 1009, "hate": 1010, "eventually": 1011, "##em": 1012, "##ble": 1013, "##b": 1014, "app": 1015, "cm": 1016, "dirt": 1017, "prevent": 1018, "worried": 1019, "##ie": 1020, "options": 1021, "handle": 1022, "videos": 1023, "ordering": 1024, "oh": 1025, "ease": 1026, "harder": 1027, "thinking": 1028, "third": 1029, "behind": 1030, "connector": 1031, "photo": 1032, "rough": 1033, "sort": 1034, "layer": 1035, "bother": 1036, "##tc": 1037, "##ra": 1038, "breaking": 1039, "section": 1040, "fingers": 1041, "##9": 1042, "damaged": 1043, "chance": 1044, "somewhat": 1045, "process": 1046, "hasn": 1047, "cl": 1048, "##ging": 1049, "impossible": 1050, "cloth": 1051, "sharp": 1052, "table": 1053, "live": 1054, "match": 1055, "holster": 1056, "flash": 1057, "tab": 1058, "slick": 1059, "ar": 1060, "hoping": 1061, "exact": 1062, "##ef": 1063, "whatever": 1064, "basically": 1065, "everyday": 1066, "enjoy": 1067, "##00": 1068, "fault": 1069, "##ge": 1070, "additional": 1071, "addition": 1072, "reasonable": 1073, "mean": 1074, "p": 1075, "happen": 1076, "##us": 1077, "travel": 1078, "faster": 1079, "##ized": 1080, "50": 1081, "sticky": 1082, "skin": 1083, "personally": 1084, "expecting": 1085, "sp": 1086, "linked": 1087, "magnetic": 1088, "dirty": 1089, "attractive": 1090, "understand": 1091, "##ot": 1092, "tx": 1093, "text": 1094, "lower": 1095, "thickness": 1096, "straight": 1097, "truly": 1098, "sit": 1099, "floor": 1100, "rv": 1101, "closed": 1102, "junk": 1103, "connected": 1104, "sw": 1105, "feet": 1106, "film": 1107, "##1": 1108, "input": 1109, "expectations": 1110, "##proof": 1111, "insert": 1112, "functionality": 1113, "business": 1114, "complain": 1115, "ability": 1116, "packaged": 1117, "rugged": 1118, "duty": 1119, "per": 1120, "kicks": 1121, "functions": 1122, "draw": 1123, "raised": 1124, "hour": 1125, "returning": 1126, "tech": 1127, "slow": 1128, "stated": 1129, "dark": 1130, "terrible": 1131, "priced": 1132, "basic": 1133, "bubble": 1134, "sm": 1135, "materials": 1136, "mom": 1137, "happened": 1138, "matt": 1139, "offered": 1140, "##tan": 1141, "peel": 1142, "carrying": 1143, "shock": 1144, "accidentally": 1145, "spec": 1146, "slides": 1147, "noticeable": 1148, "dr": 1149, "pain": 1150, "length": 1151, "knew": 1152, "##ent": 1153, "taken": 1154, "form": 1155, "complete": 1156, "consider": 1157, "profile": 1158, "crap": 1159, "screens": 1160, "##gly": 1161, "leaving": 1162, "[": 1163, "]": 1164, "kinda": 1165, "proof": 1166, "angle": 1167, "led": 1168, "de": 1169, "gone": 1170, "certainly": 1171, "desk": 1172, "##mm": 1173, "turns": 1174, "key": 1175, "cleaning": 1176, "interfere": 1177, "view": 1178, "click": 1179, "solution": 1180, "major": 1181, "application": 1182, "particular": 1183, "middle": 1184, "images": 1185, "hear": 1186, "##est": 1187, "online": 1188, "delivered": 1189, "dual": 1190, "downs": 1191, "fun": 1192, "anywhere": 1193, "flawless": 1194, "compact": 1195, "write": 1196, "ready": 1197, "inch": 1198, "mail": 1199, "al": 1200, "opened": 1201, "disc": 1202, "##out": 1203, "older": 1204, "places": 1205, "ex": 1206, "adjust": 1207, "pad": 1208, "him": 1209, "flip": 1210, "wide": 1211, "performance": 1212, "##ive": 1213, "sc": 1214, "email": 1215, "horrible": 1216, "spare": 1217, "whether": 1218, "sold": 1219, "impact": 1220, "hopefully": 1221, "double": 1222, "strap": 1223, "saying": 1224, "ring": 1225, "wants": 1226, "stiff": 1227, "separate": 1228, "mentioned": 1229, "body": 1230, "become": 1231, "told": 1232, "ur": 1233, "usage": 1234, "trust": 1235, "resistant": 1236, "figure": 1237, "fingerprints": 1238, "contacted": 1239, "##le": 1240, "iv": 1241, "suggest": 1242, "bucks": 1243, "tend": 1244, "correct": 1245, "directly": 1246, "premium": 1247, "speed": 1248, "lock": 1249, "f": 1250, "installing": 1251, "talk": 1252, "adding": 1253, "##riz": 1254, "##et": 1255, "tape": 1256, "despite": 1257, "mount": 1258, "2nd": 1259, "total": 1260, "control": 1261, "current": 1262, "self": 1263, "wipe": 1264, "stock": 1265, "trip": 1266, "nor": 1267, "accessible": 1268, "r": 1269, "mostly": 1270, "asked": 1271, "green": 1272, "backup": 1273, "##ide": 1274, "dry": 1275, "compatible": 1276, "brands": 1277, "portion": 1278, "via": 1279, "mention": 1280, "##sle": 1281, "sticks": 1282, "inc": 1283, "upon": 1284, "dead": 1285, "directions": 1286, "kit": 1287, "outs": 1288, "bonus": 1289, "band": 1290, "average": 1291, "mode": 1292, "defective": 1293, "leaves": 1294, "necessary": 1295, "##hesive": 1296, "pre": 1297, "clearly": 1298, "hidden": 1299, "pic": 1300, "system": 1301, "##har": 1302, "batteries": 1303, "follow": 1304, "youtube": 1305, "certain": 1306, "##i": 1307, "computer": 1308, "lasts": 1309, "figured": 1310, "na": 1311, "snaps": 1312, "center": 1313, "sliding": 1314, "reach": 1315, "keys": 1316, "wet": 1317, "literally": 1318, "lay": 1319, "excited": 1320, "obviously": 1321, "ga": 1322, "##q": 1323, "slots": 1324, "required": 1325, "sample": 1326, "responsive": 1327, "weak": 1328, "zero": 1329, "promised": 1330, "##gg": 1331, "reliable": 1332, "worse": 1333, "apps": 1334, "forget": 1335, "realize": 1336, "effect": 1337, "lens": 1338, "99": 1339, "cords": 1340, "thinner": 1341, "##cing": 1342, "starts": 1343, "accessories": 1344, "helped": 1345, "yourself": 1346, "various": 1347, "wow": 1348, "remember": 1349, "spent": 1350, "16": 1351, "normally": 1352, "continue": 1353, "##to": 1354, "breaks": 1355, "su": 1356, "happens": 1357, "chip": 1358, "applied": 1359, "comment": 1360, "starting": 1361, "answer": 1362, "affordable": 1363, "avoid": 1364, "inner": 1365, "heads": 1366, "mp": 1367, "worst": 1368, "covering": 1369, "include": 1370, "changed": 1371, "sitting": 1372, "gps": 1373, "biggest": 1374, "exposed": 1375, "previously": 1376, "defender": 1377, "thus": 1378, "throw": 1379, "##ft": 1380, "lighter": 1381, "sized": 1382, "google": 1383, "shield": 1384, "choose": 1385, "seconds": 1386, "luck": 1387, "https": 1388, "intended": 1389, "forward": 1390, "series": 1391, "areas": 1392, "watching": 1393, "##or": 1394, "lin": 1395, "portable": 1396, "dollars": 1397, "audio": 1398, "##print": 1399, "ipod": 1400, "base": 1401, "##ling": 1402, "concerned": 1403, "suppose": 1404, "armor": 1405, "flap": 1406, "weird": 1407, "hd": 1408, "##ome": 1409, "shown": 1410, "tear": 1411, "glue": 1412, "includes": 1413, "paper": 1414, "upgrade": 1415, "##ier": 1416, "spa": 1417, "date": 1418, "shut": 1419, "road": 1420, "wi": 1421, "crazy": 1422, "lets": 1423, "results": 1424, "currently": 1425, "originally": 1426, "coverage": 1427, "25": 1428, "bend": 1429, "logo": 1430, "range": 1431, "speakers": 1432, "failed": 1433, "firm": 1434, "perhaps": 1435, "further": 1436, "feedback": 1437, "##igen": 1438, "doubt": 1439, "questions": 1440, "prime": 1441, "outlet": 1442, "waiting": 1443, "fixed": 1444, "effort": 1445, "3rd": 1446, "special": 1447, "en": 1448, "disco": 1449, "ends": 1450, "lu": 1451, "screw": 1452, "purposes": 1453, "##st": 1454, "extended": 1455, "crystal": 1456, "alone": 1457, "window": 1458, "max": 1459, "picked": 1460, "initially": 1461, "missing": 1462, "office": 1463, "arm": 1464, "forever": 1465, "40": 1466, "anti": 1467, "ultra": 1468, "world": 1469, "mess": 1470, "talking": 1471, "depending": 1472, "frame": 1473, "ss": 1474, "driving": 1475, "lack": 1476, "appreciate": 1477, "silver": 1478, "external": 1479, "slate": 1480, "chose": 1481, "result": 1482, "reviewers": 1483, "relatively": 1484, "wearing": 1485, "pressure": 1486, "sense": 1487, "playing": 1488, "opinions": 1489, "def": 1490, "requires": 1491, "sits": 1492, "appear": 1493, "users": 1494, "seriously": 1495, "showing": 1496, "24": 1497, "aware": 1498, "bumps": 1499, "clips": 1500, "information": 1501, "##ip": 1502, "visible": 1503, "called": 1504, "heat": 1505, "eye": 1506, "sim": 1507, "##ping": 1508, "##ted": 1509, "tablets": 1510, "tightly": 1511, "neat": 1512, "c": 1513, "##udge": 1514, "##ylus": 1515, "backing": 1516, "models": 1517, "##ware": 1518, "moving": 1519, "seeing": 1520, "force": 1521, "replacing": 1522, "##ente": 1523, "mis": 1524, "unique": 1525, "limited": 1526, "bump": 1527, "11": 1528, "realized": 1529, "purple": 1530, "upgraded": 1531, "hardly": 1532, "facing": 1533, "period": 1534, "storage": 1535, "concern": 1536, "rep": 1537, "lights": 1538, "christmas": 1539, "edit": 1540, "##oid": 1541, "cracks": 1542, "afraid": 1543, "##al": 1544, "response": 1545, "technology": 1546, "flaw": 1547, "factory": 1548, "concrete": 1549, "accessory": 1550, "types": 1551, "everywhere": 1552, "receiving": 1553, "sister": 1554, "investment": 1555, "applying": 1556, "v": 1557, "se": 1558, "amp": 1559, "adequate": 1560, "traveling": 1561, "changes": 1562, "professional": 1563, "pictured": 1564, "finding": 1565, "require": 1566, "imagine": 1567, "lightning": 1568, "prior": 1569, "grab": 1570, "tool": 1571, "sell": 1572, "appearance": 1573, "affect": 1574, "reasons": 1575, "stands": 1576, "##per": 1577, "pulled": 1578, "##en": 1579, "meant": 1580, "ground": 1581, "stayed": 1582, "active": 1583, "sending": 1584, "y": 1585, "heard": 1586, "bring": 1587, "early": 1588, "rear": 1589, "shiny": 1590, "earlier": 1591, "##te": 1592, "cash": 1593, "motorola": 1594, "elegant": 1595, "guy": 1596, "cas": 1597, "providing": 1598, "knock": 1599, "therefore": 1600, "slipping": 1601, "bunch": 1602, "attention": 1603, "awhile": 1604, "website": 1605, "search": 1606, "underneath": 1607, "openings": 1608, "minute": 1609, "scratching": 1610, "charm": 1611, "pressing": 1612, "allowing": 1613, "electronics": 1614, "stretch": 1615, "rated": 1616, "frequently": 1617, "viewing": 1618, "capacity": 1619, "ugly": 1620, "ob": 1621, "besides": 1622, "wrap": 1623, "deep": 1624, "drive": 1625, "curved": 1626, "heavier": 1627, "pair": 1628, "post": 1629, "caused": 1630, "signal": 1631, "sticking": 1632, "lines": 1633, "setting": 1634, "clarity": 1635, "writing": 1636, "miss": 1637, "print": 1638, "slips": 1639, "##lai": 1640, "guys": 1641, "pouch": 1642, "yellow": 1643, "bed": 1644, "turning": 1645, "pulling": 1646, "listen": 1647, "sorry": 1648, "dock": 1649, "outstanding": 1650, "##by": 1651, "comments": 1652, "pen": 1653, "surprisingly": 1654, "accurate": 1655, "##ped": 1656, "gap": 1657, "door": 1658, "ac": 1659, "combination": 1660, "factor": 1661, "snapped": 1662, "mistake": 1663, "carefully": 1664, "flush": 1665, "surprise": 1666, "accident": 1667, "matches": 1668, "##j": 1669, "00": 1670, "garbage": 1671, "surfaces": 1672, "multi": 1673, "beyond": 1674, "changing": 1675, "whenever": 1676, "tip": 1677, "##rs": 1678, "hi": 1679, "became": 1680, "retail": 1681, "constructed": 1682, "six": 1683, "slowly": 1684, "compare": 1685, "notch": 1686, "disappointing": 1687, "output": 1688, "games": 1689, "somewhere": 1690, "paying": 1691, "image": 1692, "supplied": 1693, "laptop": 1694, "seam": 1695, "step": 1696, "ship": 1697, "runs": 1698, "firmly": 1699, "sync": 1700, "rigid": 1701, "##in": 1702, "showed": 1703, "sensitivity": 1704, "gr": 1705, "lifetime": 1706, "general": 1707, "shouldn": 1708, "wire": 1709, "wrist": 1710, "##back": 1711, "usual": 1712, "absorb": 1713, "hang": 1714, "variety": 1715, "friendly": 1716, "proper": 1717, "happier": 1718, "sucks": 1719, "marks": 1720, "confident": 1721, "##ro": 1722, "##bu": 1723, "typical": 1724, "words": 1725, "knowing": 1726, "peeling": 1727, "risk": 1728, "##ug": 1729, "practical": 1730, "bill": 1731, "adhere": 1732, "bar": 1733, "updated": 1734, "ma": 1735, "touching": 1736, "effective": 1737, "coating": 1738, "lift": 1739, "controls": 1740, "gs": 1741, "kick": 1742, "##sa": 1743, "trade": 1744, "china": 1745, "abuse": 1746, "voice": 1747, "##ally": 1748, "ta": 1749, "inches": 1750, "shattered": 1751, "example": 1752, "newer": 1753, "terms": 1754, "##uf": 1755, "morning": 1756, "##ve": 1757, "microphone": 1758, "causing": 1759, "following": 1760, "arrive": 1761, "known": 1762, "worn": 1763, "needing": 1764, "colored": 1765, "reviewer": 1766, "party": 1767, "points": 1768, "90": 1769, "plate": 1770, "tends": 1771, "sensor": 1772, "1st": 1773, "ideal": 1774, "poorly": 1775, "##ts": 1776, "brought": 1777, "specific": 1778, "##ting": 1779, "alternative": 1780, "awkward": 1781, "initial": 1782, "switched": 1783, "align": 1784, "bank": 1785, "rounded": 1786, "pressed": 1787, "hair": 1788, "trick": 1789, "luckily": 1790, "60": 1791, "regret": 1792, "##ds": 1793, "gel": 1794, "web": 1795, "lined": 1796, "##oo": 1797, "becomes": 1798, "ways": 1799, "reduced": 1800, "##ne": 1801, "glare": 1802, "##ch": 1803, "driver": 1804, "##ist": 1805, "threw": 1806, "numerous": 1807, "##io": 1808, "pass": 1809, "usable": 1810, "causes": 1811, "vs": 1812, "##u": 1813, "shop": 1814, "13": 1815, "cracking": 1816, "decision": 1817, "placing": 1818, "superior": 1819, "incredibly": 1820, "##ue": 1821, "combo": 1822, "14": 1823, "2015": 1824, "stu": 1825, "##less": 1826, "##mah": 1827, "juice": 1828, "listed": 1829, "pants": 1830, "sensitive": 1831, "pl": 1832, "wise": 1833, "##mp": 1834, "reasonably": 1835, "fail": 1836, "##se": 1837, "setup": 1838, "dollar": 1839, "det": 1840, "ton": 1841, "trash": 1842, "direct": 1843, "begin": 1844, "vendor": 1845, "mainly": 1846, "ins": 1847, "mother": 1848, "man": 1849, "caught": 1850, "##ic": 1851, "customers": 1852, "serves": 1853, "##gs": 1854, "tad": 1855, "##re": 1856, "vibrant": 1857, "stores": 1858, "gray": 1859, "book": 1860, "pin": 1861, "mu": 1862, "error": 1863, "tools": 1864, "##pp": 1865, "ran": 1866, "specifically": 1867, "manual": 1868, "list": 1869, "##ry": 1870, "selling": 1871, "bu": 1872, "clumsy": 1873, "foot": 1874, "spring": 1875, "possibly": 1876, "internal": 1877, "z": 1878, "soo": 1879, "word": 1880, "shot": 1881, "ahead": 1882, "pushing": 1883, "release": 1884, "loud": 1885, "extend": 1886, "site": 1887, "trips": 1888, "skeptical": 1889, "whatsoever": 1890, "ha": 1891, "neither": 1892, "dash": 1893, "swap": 1894, "somehow": 1895, "apparently": 1896, "##nt": 1897, "awful": 1898, "grey": 1899, "hybrid": 1900, "common": 1901, "fold": 1902, "companies": 1903, "losing": 1904, "impressive": 1905, "internet": 1906, "improve": 1907, "~": 1908, "movies": 1909, "bent": 1910, "mic": 1911, "yesterday": 1912, "moved": 1913, "plain": 1914, "beautifully": 1915, "improvement": 1916, "particularly": 1917, "18": 1918, "removal": 1919, "gorgeous": 1920, "moment": 1921, "stronger": 1922, "reviewing": 1923, "message": 1924, "speak": 1925, "wanting": 1926, "indicator": 1927, "convenience": 1928, "overnight": 1929, "sounds": 1930, "uncomfortable": 1931, "ni": 1932, "decide": 1933, "##ies": 1934, "##pr": 1935, "generally": 1936, "serious": 1937, "followed": 1938, "security": 1939, "##ber": 1940, "fire": 1941, "cushion": 1942, "operate": 1943, "girl": 1944, "##ps": 1945, "died": 1946, "transfer": 1947, "regardless": 1948, "precise": 1949, "experienced": 1950, "##iness": 1951, "aside": 1952, "accommodate": 1953, "prints": 1954, "odd": 1955, "commuter": 1956, "imp": 1957, "grips": 1958, "meaning": 1959, "ensure": 1960, "automatically": 1961, "keyboard": 1962, "##ice": 1963, "res": 1964, "dad": 1965, "laying": 1966, "prone": 1967, "comfortably": 1968, "##pro": 1969, "co": 1970, "research": 1971, "aluminum": 1972, "costs": 1973, "allowed": 1974, "##ker": 1975, "tricky": 1976, "buyer": 1977, "rid": 1978, "pattern": 1979, "detail": 1980, "evaluation": 1981, "ding": 1982, "shopping": 1983, "girlfriend": 1984, "fancy": 1985, "clasp": 1986, "2016": 1987, "location": 1988, "spots": 1989, "hoped": 1990, "sub": 1991, "##10": 1992, "present": 1993, "th": 1994, "pc": 1995, "##at": 1996, "aligned": 1997, "settings": 1998, "hub": 1999, "sleeve": 2000, "##01": 2001, "sd": 2002, "##dget": 2003, "sq": 2004, "comparison": 2005, "radio": 2006, "share": 2007, "fragile": 2008, "asking": 2009, "placement": 2010, "seat": 2011, "attempt": 2012, "noise": 2013, "height": 2014, "began": 2015, "elsewhere": 2016, "##ho": 2017, "orange": 2018, "##screen": 2019, "beauty": 2020, "trim": 2021, "survived": 2022, "opportunity": 2023, "custom": 2024, "details": 2025, "concept": 2026, "warm": 2027, "adjustable": 2028, "sun": 2029, "connects": 2030, "blackberry": 2031, "occasionally": 2032, "##ved": 2033, "round": 2034, "prevents": 2035, "loving": 2036, "tired": 2037, "seal": 2038, "closure": 2039, "##movable": 2040, "frustrating": 2041, "ind": 2042, "admit": 2043, "landscape": 2044, "wider": 2045, "popped": 2046, "unable": 2047, "glossy": 2048, "willing": 2049, "identical": 2050, "repair": 2051, "nokia": 2052, "state": 2053, "catch": 2054, "local": 2055, "powerful": 2056, "software": 2057, "auto": 2058, "promptly": 2059, "increase": 2060, "strength": 2061, "sale": 2062, "claim": 2063, "incredible": 2064, "sleep": 2065, "mark": 2066, "pops": 2067, "smoothly": 2068, "memory": 2069, "brick": 2070, "ridiculous": 2071, "##na": 2072, "width": 2073, "carrier": 2074, "##ter": 2075, "##ha": 2076, "brother": 2077, "stable": 2078, "generic": 2079, "transparent": 2080, "jeans": 2081, "thoughts": 2082, "pushed": 2083, "#": 2084, "loop": 2085, "maximum": 2086, "sellers": 2087, "ill": 2088, "##age": 2089, "##ven": 2090, "80": 2091, "##sp": 2092, "game": 2093, "late": 2094, "vehicle": 2095, "min": 2096, "gonna": 2097, "significant": 2098, "la": 2099, "##ce": 2100, "experiences": 2101, "states": 2102, "##ate": 2103, "fr": 2104, "obvious": 2105, "connecting": 2106, "claims": 2107, "handling": 2108, "wo": 2109, "strip": 2110, "license": 2111, "pleasantly": 2112, "##ful": 2113, "truck": 2114, "electronic": 2115, "oil": 2116, "##lc": 2117, "vertical": 2118, "##op": 2119, "yeah": 2120, "##zel": 2121, "exception": 2122, "weren": 2123, "thru": 2124, "hesitate": 2125, "lit": 2126, "attachment": 2127, "universal": 2128, "windows": 2129, "horizontal": 2130, "##com": 2131, "##ment": 2132, "indeed": 2133, "eyes": 2134, "lasting": 2135, "wonder": 2136, "question": 2137, "improved": 2138, "curve": 2139, "##rdi": 2140, "till": 2141, "##ction": 2142, "rarely": 2143, "k": 2144, "flex": 2145, "searching": 2146, "situation": 2147, "fallen": 2148, "cup": 2149, "operation": 2150, "##usa": 2151, "cleaned": 2152, "reviewed": 2153, "superb": 2154, "instruction": 2155, "puts": 2156, "fi": 2157, "penny": 2158, "##tr": 2159, "easiest": 2160, "rip": 2161, "worries": 2162, "versions": 2163, "##time": 2164, "backpack": 2165, "distance": 2166, "sad": 2167, "za": 2168, "##os": 2169, "##bit": 2170, "te": 2171, "bt": 2172, "paint": 2173, "accidental": 2174, "environment": 2175, "learned": 2176, "qi": 2177, "si": 2178, "source": 2179, "page": 2180, "entirely": 2181, "cradle": 2182, "##od": 2183, "met": 2184, "virtually": 2185, "wires": 2186, "dent": 2187, "2014": 2188, "sprint": 2189, "powered": 2190, "softer": 2191, "breaker": 2192, "noted": 2193, "purchases": 2194, "loss": 2195, "folks": 2196, "breeze": 2197, "typically": 2198, "player": 2199, "sadly": 2200, "tho": 2201, "activate": 2202, "tin": 2203, "counter": 2204, "overly": 2205, "##ru": 2206, "boyfriend": 2207, "resistance": 2208, "calling": 2209, "meets": 2210, "thumbs": 2211, "managed": 2212, "rose": 2213, "paired": 2214, "checked": 2215, "usa": 2216, "fear": 2217, "walk": 2218, "cars": 2219, "##lu": 2220, "##ac": 2221, "sweet": 2222, "capable": 2223, "prices": 2224, "mm": 2225, "performs": 2226, "##sh": 2227, "rock": 2228, "packs": 2229, "respond": 2230, "timely": 2231, "sealed": 2232, "bum": 2233, "socket": 2234, "walking": 2235, "lining": 2236, "constant": 2237, "naked": 2238, "law": 2239, "guarantee": 2240, "spending": 2241, "create": 2242, "dim": 2243, "benefit": 2244, "themselves": 2245, "listening": 2246, "upper": 2247, "assume": 2248, "confidence": 2249, "switching": 2250, "fake": 2251, "baby": 2252, "resolution": 2253, "towards": 2254, "loosen": 2255, "reception": 2256, "gear": 2257, "##ile": 2258, "stops": 2259, "##gb": 2260, "tons": 2261, "offering": 2262, "##ty": 2263, "hey": 2264, "75": 2265, "ph": 2266, "potential": 2267, "degree": 2268, "##bly": 2269, "45": 2270, "board": 2271, "vi": 2272, "rely": 2273, "download": 2274, "knows": 2275, "disclosure": 2276, "units": 2277, "sizes": 2278, "unlocked": 2279, "station": 2280, "tap": 2281, "lucky": 2282, "##ion": 2283, "flaws": 2284, "daughters": 2285, "holders": 2286, "closer": 2287, "peeled": 2288, "mounted": 2289, "##ity": 2290, "lighting": 2291, "bands": 2292, "drain": 2293, "cu": 2294, "disappointment": 2295, "intact": 2296, "sat": 2297, "beginning": 2298, "absolute": 2299, "wears": 2300, "meet": 2301, "genuine": 2302, "##ke": 2303, "wig": 2304, "##ick": 2305, "ra": 2306, "enjoyed": 2307, "notification": 2308, "report": 2309, "invisible": 2310, "thumb": 2311, "choices": 2312, "##nne": 2313, "panel": 2314, "basis": 2315, "difficulty": 2316, "q": 2317, "school": 2318, "attache": 2319, "rotate": 2320, "##hea": 2321, "nu": 2322, "cameras": 2323, "capability": 2324, "safety": 2325, "connections": 2326, "##it": 2327, "method": 2328, "located": 2329, "sets": 2330, "reduce": 2331, "alcohol": 2332, "perform": 2333, "glued": 2334, "17": 2335, "conclusion": 2336, "square": 2337, "forgot": 2338, "sooner": 2339, "darker": 2340, "www": 2341, "manage": 2342, "emergency": 2343, "wasted": 2344, "term": 2345, "significantly": 2346, "##pe": 2347, "##ls": 2348, "prompt": 2349, "##ks": 2350, "##ding": 2351, "tack": 2352, "thrilled": 2353, "interior": 2354, "written": 2355, "conditions": 2356, "handed": 2357, "liking": 2358, "remaining": 2359, "messages": 2360, "slower": 2361, "aesthetic": 2362, "wrapped": 2363, "solve": 2364, "preferred": 2365, "brightness": 2366, "##tal": 2367, "track": 2368, "generation": 2369, "separately": 2370, "background": 2371, "gi": 2372, "ripped": 2373, "discovered": 2374, "1a": 2375, "slipped": 2376, "vacation": 2377, "manufacturers": 2378, "supports": 2379, "hardware": 2380, "designs": 2381, "kid": 2382, "ten": 2383, "survive": 2384, "medium": 2385, "##vert": 2386, "impression": 2387, "pry": 2388, "##mo": 2389, "ii": 2390, "shorter": 2391, "accept": 2392, "wore": 2393, "direction": 2394, "acceptable": 2395, "solved": 2396, "account": 2397, "remains": 2398, "throughout": 2399, "final": 2400, "moderate": 2401, "lcd": 2402, "bargain": 2403, "event": 2404, "interesting": 2405, "warning": 2406, "thankfully": 2407, "alright": 2408, "weather": 2409, "hanging": 2410, "comparable": 2411, "##is": 2412, "interested": 2413, "hitting": 2414, "er": 2415, "wraps": 2416, "tips": 2417, "shine": 2418, "act": 2419, "guide": 2420, "importantly": 2421, "tv": 2422, "stress": 2423, "wash": 2424, "brown": 2425, "par": 2426, "##lo": 2427, "info": 2428, "fu": 2429, "staying": 2430, "gen": 2431, "damaging": 2432, "advantage": 2433, "##ll": 2434, "performed": 2435, "modern": 2436, "cutting": 2437, "##tec": 2438, "natural": 2439, "semi": 2440, "layers": 2441, "upside": 2442, "unlock": 2443, "summer": 2444, "dislike": 2445, "##amp": 2446, "sufficient": 2447, "equipment": 2448, "manner": 2449, "opt": 2450, "fortunately": 2451, "lovely": 2452, "loaded": 2453, "shame": 2454, "##ize": 2455, "media": 2456, "mounts": 2457, "strongly": 2458, "2013": 2459, "preference": 2460, "regularly": 2461, "messed": 2462, "amazed": 2463, "missed": 2464, "bare": 2465, "stupid": 2466, "boy": 2467, "##band": 2468, "sand": 2469, "##gle": 2470, "stitch": 2471, "suspect": 2472, "##piece": 2473, "angles": 2474, "gorilla": 2475, "latch": 2476, "count": 2477, "posted": 2478, "##end": 2479, "##ipe": 2480, "packed": 2481, "ps": 2482, "die": 2483, "according": 2484, "##ma": 2485, "##rus": 2486, "withstand": 2487, "ir": 2488, "latest": 2489, "quit": 2490, "##mia": 2491, "outlets": 2492, "##nd": 2493, "balance": 2494, "##line": 2495, "primary": 2496, "inserted": 2497, "waited": 2498, "exterior": 2499, "70": 2500, "##bble": 2501, "poly": 2502, "sheet": 2503, "substantial": 2504, "compensation": 2505, "os": 2506, "network": 2507, "locked": 2508, "##du": 2509, "thoroughly": 2510, "35": 2511, "aspect": 2512, "contacts": 2513, "forth": 2514, "upset": 2515, "4th": 2516, "stretched": 2517, "shipment": 2518, "hurt": 2519, "navigation": 2520, "360": 2521, "defect": 2522, "greatest": 2523, "cardboard": 2524, "supply": 2525, "peace": 2526, "dec": 2527, "##led": 2528, "story": 2529, "##gy": 2530, "instantly": 2531, "mid": 2532, "pure": 2533, "leg": 2534, "sony": 2535, "hits": 2536, "insurance": 2537, "code": 2538, "reset": 2539, "##cl": 2540, "stereo": 2541, "el": 2542, "gym": 2543, "amazingly": 2544, "fitted": 2545, "regarding": 2546, "sign": 2547, "depend": 2548, "##ible": 2549, "lt": 2550, "squeeze": 2551, "tries": 2552, "##oint": 2553, "po": 2554, "load": 2555, "occasions": 2556, "drivers": 2557, "arms": 2558, "steady": 2559, "extreme": 2560, "recent": 2561, "em": 2562, "cam": 2563, "vary": 2564, "pu": 2565, "http": 2566, "signs": 2567, "typing": 2568, "learn": 2569, "ballistic": 2570, "##med": 2571, "grade": 2572, "gifts": 2573, "dashboard": 2574, "movement": 2575, "agree": 2576, "god": 2577, "mounting": 2578, "mechanism": 2579, "flashlight": 2580, "shirt": 2581, "dozen": 2582, "letting": 2583, "occasional": 2584, "fabric": 2585, "capabilities": 2586, "prop": 2587, "safely": 2588, "remain": 2589, "hence": 2590, "##ation": 2591, "physical": 2592, "wake": 2593, "hooked": 2594, "focus": 2595, "ruined": 2596, "fashion": 2597, "particles": 2598, "saves": 2599, "situations": 2600, "comfort": 2601, "finished": 2602, "ball": 2603, "popping": 2604, "hind": 2605, "##vel": 2606, "appeared": 2607, "replacements": 2608, "indicate": 2609, "closing": 2610, "fraction": 2611, "mill": 2612, "##point": 2613, "steps": 2614, "blocks": 2615, "slid": 2616, "mute": 2617, "ft": 2618, "combined": 2619, "fails": 2620, "portrait": 2621, "emails": 2622, "resist": 2623, "cuts": 2624, "dimensions": 2625, "recess": 2626, "bounce": 2627, "##ss": 2628, "heck": 2629, "eliminate": 2630, "worthless": 2631, "static": 2632, "sunlight": 2633, "summary": 2634, "complaining": 2635, "saving": 2636, "##dgets": 2637, "remote": 2638, "##eld": 2639, "##ach": 2640, "complained": 2641, "rub": 2642, "promotional": 2643, "heart": 2644, "status": 2645, "secured": 2646, "speeds": 2647, "crisp": 2648, "cleaner": 2649, "##ze": 2650, "program": 2651, "planning": 2652, "3d": 2653, "prep": 2654, "taste": 2655, "tells": 2656, "200": 2657, "task": 2658, "greatly": 2659, "sl": 2660, "shatter": 2661, "##ff": 2662, "##ur": 2663, "menu": 2664, "describe": 2665, "ya": 2666, "strange": 2667, "dar": 2668, "opposed": 2669, "additionally": 2670, "lifting": 2671, "##bay": 2672, "moves": 2673, "mp3": 2674, "95": 2675, "aux": 2676, "##ary": 2677, "hearing": 2678, "watched": 2679, "pads": 2680, "ne": 2681, "metallic": 2682, "closes": 2683, "clock": 2684, "beats": 2685, "fat": 2686, "kinds": 2687, "minimum": 2688, "smell": 2689, "##cha": 2690, "folded": 2691, "quicker": 2692, "##bers": 2693, "cum": 2694, "knife": 2695, "bug": 2696, "opens": 2697, "concerns": 2698, "mold": 2699, "##fs": 2700, "hated": 2701, "released": 2702, "32": 2703, "serve": 2704, "news": 2705, "wood": 2706, "exceeded": 2707, "operating": 2708, "standing": 2709, "waist": 2710, "narrow": 2711, "vent": 2712, "##ets": 2713, "ios": 2714, "extras": 2715, "living": 2716, "wrote": 2717, "nail": 2718, "hide": 2719, "passed": 2720, "steal": 2721, "qu": 2722, "tile": 2723, "hopes": 2724, "residue": 2725, "reflect": 2726, "blur": 2727, "field": 2728, "##backs": 2729, "applications": 2730, "##book": 2731, "000": 2732, "compartment": 2733, "kitchen": 2734, "checking": 2735, "essential": 2736, "struggle": 2737, "dial": 2738, "afford": 2739, "extension": 2740, "wondering": 2741, "##om": 2742, "##nge": 2743, "rocker": 2744, "windshield": 2745, "efficient": 2746, "lastly": 2747, "foam": 2748, "practically": 2749, "speaking": 2750, "highest": 2751, "##am": 2752, "##ise": 2753, "##shi": 2754, "birthday": 2755, "enjoying": 2756, "funny": 2757, "reached": 2758, "notes": 2759, "detailed": 2760, "desired": 2761, "digital": 2762, "rapid": 2763, "81": 2764, "explain": 2765, "simultaneously": 2766, "locks": 2767, "anytime": 2768, "buyers": 2769, "pe": 2770, "adjustment": 2771, "debris": 2772, "winner": 2773, "##rac": 2774, "flexibility": 2775, "terrific": 2776, "husbands": 2777, "appropriate": 2778, "buck": 2779, "##co": 2780, "bars": 2781, "##pa": 2782, "dull": 2783, "rim": 2784, "updates": 2785, "desktop": 2786, "500": 2787, "listing": 2788, "dig": 2789, "##fo": 2790, "win": 2791, "opposite": 2792, "boot": 2793, "beating": 2794, "movie": 2795, "address": 2796, "interface": 2797, "fa": 2798, "brows": 2799, "deliver": 2800, "##gh": 2801, "hadn": 2802, "promise": 2803, "sky": 2804, "versatile": 2805, "budget": 2806, "rain": 2807, "nature": 2808, "continues": 2809, "##omi": 2810, "considered": 2811, "es": 2812, "@": 2813, "ev": 2814, "adorable": 2815, "sweat": 2816, "degrees": 2817, "##ege": 2818, "split": 2819, "nervous": 2820, "zip": 2821, "extends": 2822, "##ype": 2823, "colorful": 2824, "grand": 2825, "rubbing": 2826, "random": 2827, "numbers": 2828, "chinese": 2829, "j": 2830, "advertising": 2831, "wa": 2832, "core": 2833, "heavily": 2834, "##ler": 2835, "hesitant": 2836, "che": 2837, "##market": 2838, "arrival": 2839, "locking": 2840, "essentially": 2841, "throwing": 2842, "positioned": 2843, "touches": 2844, "recognize": 2845, "official": 2846, "housing": 2847, "om": 2848, "advice": 2849, "weekend": 2850, "worrying": 2851, "roughly": 2852, "gently": 2853, "vol": 2854, "minus": 2855, "drawer": 2856, "centered": 2857, "neo": 2858, "acc": 2859, "adjusted": 2860, "tests": 2861, "goo": 2862, "ho": 2863, "##ther": 2864, "alignment": 2865, "outdoors": 2866, "picking": 2867, "monitor": 2868, "receiver": 2869, "##ient": 2870, "pleasant": 2871, "maintain": 2872, "##ability": 2873, "needles": 2874, "uno": 2875, "compromise": 2876, "laid": 2877, "camping": 2878, "reader": 2879, "##ri": 2880, "tighter": 2881, "partially": 2882, "##unk": 2883, "served": 2884, "##tra": 2885, "neck": 2886, "rocks": 2887, "action": 2888, "brain": 2889, "supported": 2890, "telling": 2891, "moisture": 2892, "owning": 2893, "pinch": 2894, "steel": 2895, "cap": 2896, "##las": 2897, "owner": 2898, "badly": 2899, "padded": 2900, "toss": 2901, "favor": 2902, "consumer": 2903, "informed": 2904, "permanent": 2905, "dies": 2906, "##off": 2907, "streaming": 2908, "##up": 2909, "shaped": 2910, "##some": 2911, "military": 2912, "percent": 2913, "comparing": 2914, "influenced": 2915, "contract": 2916, "mac": 2917, "attract": 2918, "guard": 2919, "suit": 2920, "delivers": 2921, "versus": 2922, "##kin": 2923, "creates": 2924, "interference": 2925, "bending": 2926, "fill": 2927, "##ord": 2928, "manufacturing": 2929, "mirror": 2930, "sg": 2931, "tooth": 2932, "bike": 2933, "hell": 2934, "printed": 2935, "electrical": 2936, "approximately": 2937, "liquid": 2938, "sa": 2939, "file": 2940, "2a": 2941, "##lor": 2942, "complement": 2943, "vo": 2944, "happening": 2945, "##fy": 2946, "21": 2947, "ride": 2948, "nails": 2949, "brings": 2950, "lives": 2951, "pi": 2952, "##20": 2953, "thrown": 2954, "popular": 2955, "gp": 2956, "pixel": 2957, "selection": 2958, "truth": 2959, "empty": 2960, "##ase": 2961, "assuming": 2962, "boost": 2963, "flying": 2964, "randomly": 2965, "ultimately": 2966, "mall": 2967, "vertically": 2968, "tone": 2969, "voltage": 2970, "friction": 2971, "##il": 2972, "patience": 2973, "consistently": 2974, "tr": 2975, "rev": 2976, "robust": 2977, "pulls": 2978, "jacket": 2979, "gaps": 2980, "ci": 2981, "wished": 2982, "reference": 2983, "sensors": 2984, "collect": 2985, "nfc": 2986, "1000": 2987, "age": 2988, "bc": 2989, "affected": 2990, "member": 2991, "lan": 2992, "folds": 2993, "bathroom": 2994, "tag": 2995, "##el": 2996, "assembly": 2997, "border": 2998, "gentle": 2999, "children": 3000, "wired": 3001, "existing": 3002, "brilliant": 3003, "##era": 3004, "landed": 3005, "country": 3006, "fabulous": 3007, "energy": 3008, "##ele": 3009, "solely": 3010, "depth": 3011, "pri": 3012, "failure": 3013, "sons": 3014, "maps": 3015, "primarily": 3016, "granted": 3017, "19": 3018, "pins": 3019, "ic": 3020, "##tly": 3021, "ip": 3022, "ratings": 3023, "pleasing": 3024, "title": 3025, "challenge": 3026, "depends": 3027, "cellular": 3028, "alarm": 3029, "lifted": 3030, "doubles": 3031, "##ver": 3032, "anybody": 3033, "default": 3034, "##ial": 3035, "matters": 3036, "##cting": 3037, "bang": 3038, "spray": 3039, "exceptional": 3040, "cave": 3041, "##yi": 3042, "joke": 3043, "recommendation": 3044, "molded": 3045, "knocked": 3046, "mix": 3047, "adjusting": 3048, "circle": 3049, "##istic": 3050, "carried": 3051, "facebook": 3052, "bet": 3053, "annoyance": 3054, "frustration": 3055, "chrome": 3056, "loses": 3057, "console": 3058, "success": 3059, "sport": 3060, "horizontally": 3061, "gripping": 3062, "##ky": 3063, "##as": 3064, "rates": 3065, "international": 3066, "und": 3067, "scrape": 3068, "shade": 3069, "equal": 3070, "##pc": 3071, "ram": 3072, "longevity": 3073, "##gon": 3074, "practice": 3075, "created": 3076, "branded": 3077, "##case": 3078, "gun": 3079, "bills": 3080, "qui": 3081, "suggested": 3082, "##gl": 3083, "niece": 3084, "sports": 3085, "beach": 3086, "father": 3087, "sells": 3088, "expand": 3089, "select": 3090, "##eno": 3091, "envelope": 3092, "##id": 3093, "texts": 3094, "##brate": 3095, "decisions": 3096, "certified": 3097, "rainbow": 3098, "activated": 3099, "##yard": 3100, "cold": 3101, "lacking": 3102, "fiber": 3103, "gotta": 3104, "palm": 3105, "record": 3106, "wind": 3107, "ab": 3108, "una": 3109, "members": 3110, "register": 3111, "##30": 3112, "weighs": 3113, "aesthetics": 3114, "blocked": 3115, "shower": 3116, "enter": 3117, "tea": 3118, "brighter": 3119, "pan": 3120, "mint": 3121, "##ience": 3122, "played": 3123, "##ening": 3124, "town": 3125, "##ud": 3126, "##sl": 3127, "ears": 3128, "handled": 3129, "chips": 3130, "outdoor": 3131, "repeat": 3132, "##page": 3133, "ot": 3134, "stream": 3135, "trapped": 3136, "##hr": 3137, "flaps": 3138, "unnecessary": 3139, "granddaughter": 3140, "label": 3141, "bo": 3142, "deserves": 3143, "faulty": 3144, "blu": 3145, "del": 3146, "tighten": 3147, "blend": 3148, "roll": 3149, "##phi": 3150, "##lem": 3151, "800": 3152, "glasses": 3153, "becoming": 3154, "wal": 3155, "integrated": 3156, "##mi": 3157, "##lit": 3158, "majority": 3159, "##ei": 3160, "##load": 3161, "mixed": 3162, "##carbon": 3163, "closely": 3164, "shortly": 3165, "dying": 3166, "##ar": 3167, "meter": 3168, "subtle": 3169, "policy": 3170, "silent": 3171, "##app": 3172, "ups": 3173, "owners": 3174, "prepared": 3175, "##ggle": 3176, "successfully": 3177, "indicated": 3178, "processor": 3179, "##nail": 3180, "hiking": 3181, "suggestion": 3182, "##fu": 3183, "precisely": 3184, "##mobile": 3185, "frustrated": 3186, "claimed": 3187, "safer": 3188, "nightstand": 3189, "opted": 3190, "glance": 3191, "enabled": 3192, "misleading": 3193, "##ell": 3194, "damn": 3195, "occasion": 3196, "traditional": 3197, "netflix": 3198, "delicate": 3199, "skip": 3200, "orientation": 3201, "appreciated": 3202, "dog": 3203, "aw": 3204, "docking": 3205, "cd": 3206, "child": 3207, "xp": 3208, "##ex": 3209, "##we": 3210, "##th": 3211, "carpet": 3212, "perfection": 3213, "ruin": 3214, "rare": 3215, "handles": 3216, "sales": 3217, "lie": 3218, "##mb": 3219, "candy": 3220, "##no": 3221, "##ple": 3222, "ultimate": 3223, "conversation": 3224, "among": 3225, "##boot": 3226, "forced": 3227, "familiar": 3228, "600": 3229, "tendency": 3230, "##lia": 3231, "22": 3232, "##bt": 3233, "guessing": 3234, "butt": 3235, "strips": 3236, "blow": 3237, "silly": 3238, "##ns": 3239, "wherever": 3240, "bel": 3241, "permanently": 3242, "packing": 3243, "suck": 3244, "advise": 3245, "downfall": 3246, "contrast": 3247, "obligation": 3248, "clipped": 3249, "produce": 3250, "consideration": 3251, "gas": 3252, "services": 3253, "##tor": 3254, "700": 3255, "sideways": 3256, "individual": 3257, "##ck": 3258, "##idi": 3259, "int": 3260, "##tron": 3261, "##drive": 3262, "##ssa": 3263, "hip": 3264, "classic": 3265, "suitable": 3266, "intuitive": 3267, "reality": 3268, "shots": 3269, "grandson": 3270, "pairing": 3271, "icon": 3272, "slightest": 3273, "tossed": 3274, "cow": 3275, "excessive": 3276, "##li": 3277, "##tion": 3278, "##ni": 3279, "reply": 3280, "measure": 3281, "motion": 3282, "busy": 3283, "park": 3284, "compatibility": 3285, "ole": 3286, "##ee": 3287, "scared": 3288, "grain": 3289, "functioning": 3290, "matched": 3291, "levels": 3292, "bulge": 3293, "dan": 3294, "effectively": 3295, "vinyl": 3296, "digit": 3297, "giant": 3298, "rich": 3299, "files": 3300, "fin": 3301, "gb": 3302, "faded": 3303, "provider": 3304, "responded": 3305, "##ea": 3306, "##inate": 3307, "banks": 3308, "noticeably": 3309, "ample": 3310, "hers": 3311, "tall": 3312, "picks": 3313, "reported": 3314, "turbo": 3315, "nope": 3316, "everybody": 3317, "lead": 3318, "lacks": 3319, "impressions": 3320, "tilt": 3321, "drained": 3322, "cal": 3323, "connectivity": 3324, "des": 3325, "nowhere": 3326, "sexy": 3327, "complicated": 3328, "activities": 3329, "separated": 3330, "request": 3331, "unhappy": 3332, "mega": 3333, "##ess": 3334, "learning": 3335, "equally": 3336, "carries": 3337, "massive": 3338, "##de": 3339, "male": 3340, "91": 3341, "lil": 3342, "au": 3343, "shift": 3344, "circuit": 3345, "toy": 3346, "upright": 3347, "troubles": 3348, "blame": 3349, "##do": 3350, "##dating": 3351, "64": 3352, "confusing": 3353, "riding": 3354, "specially": 3355, "enclosed": 3356, "destroyed": 3357, "stored": 3358, "2012": 3359, "detect": 3360, "##ak": 3361, "downloaded": 3362, "standards": 3363, "continued": 3364, "manually": 3365, "necessarily": 3366, "##hs": 3367, "buds": 3368, "magic": 3369, "catching": 3370, "absorbing": 3371, "##izer": 3372, "champ": 3373, "antenna": 3374, "consistent": 3375, "##ions": 3376, "tube": 3377, "fly": 3378, "nick": 3379, "##sd": 3380, "excess": 3381, "english": 3382, "cigarette": 3383, "fuss": 3384, "washed": 3385, "influence": 3386, "2017": 3387, "##nes": 3388, "restart": 3389, "##um": 3390, "upgrading": 3391, "expressed": 3392, "content": 3393, "components": 3394, "copy": 3395, "##sc": 3396, "acts": 3397, "twist": 3398, "whereas": 3399, "workout": 3400, "##ring": 3401, "absorption": 3402, "net": 3403, "drives": 3404, "collection": 3405, "contents": 3406, "##ep": 3407, "300": 3408, "surrounding": 3409, "sight": 3410, "pool": 3411, "dedicated": 3412, "ridge": 3413, "chances": 3414, "teen": 3415, "flop": 3416, "satisfaction": 3417, "positioning": 3418, "batter": 3419, "cycle": 3420, "snapping": 3421, "bothered": 3422, "boxes": 3423, "scanner": 3424, "29": 3425, "suddenly": 3426, "##pad": 3427, "appealing": 3428, "matching": 3429, "increased": 3430, "##fe": 3431, "frankly": 3432, "fastest": 3433, "visual": 3434, "##mart": 3435, "mile": 3436, "route": 3437, "july": 3438, "shocked": 3439, "straps": 3440, "convert": 3441, "filled": 3442, "mag": 3443, "lying": 3444, "caller": 3445, "related": 3446, "messing": 3447, "jelly": 3448, "##cts": 3449, "aim": 3450, "reduces": 3451, "plays": 3452, "blocking": 3453, "halo": 3454, "fray": 3455, "thinks": 3456, "art": 3457, "labeled": 3458, "reminds": 3459, "26": 3460, "greater": 3461, "elastic": 3462, "##zing": 3463, "caution": 3464, "ass": 3465, "bee": 3466, "150": 3467, "adjustments": 3468, "##be": 3469, "hundreds": 3470, "##ali": 3471, "nonetheless": 3472, "attempts": 3473, "bumped": 3474, "drains": 3475, "proven": 3476, "developed": 3477, "imperfect": 3478, "##sive": 3479, "tank": 3480, "versa": 3481, "indicates": 3482, "ec": 3483, "drag": 3484, "thoughtful": 3485, "stood": 3486, "freeze": 3487, "critical": 3488, "jump": 3489, "5th": 3490, "false": 3491, "wr": 3492, "fade": 3493, "sometime": 3494, "oils": 3495, "##cc": 3496, "countless": 3497, "young": 3498, "shake": 3499, "shields": 3500, "backside": 3501, "soap": 3502, "definite": 3503, "##ga": 3504, "smallest": 3505, "limit": 3506, "visit": 3507, "distortion": 3508, "gloss": 3509, "##ges": 3510, "raise": 3511, "##grade": 3512, "aaa": 3513, "group": 3514, "damages": 3515, "##sable": 3516, "machine": 3517, "##vo": 3518, "attempted": 3519, "styles": 3520, "displays": 3521, "positions": 3522, "highlight": 3523, "cosmetic": 3524, "discharge": 3525, "dots": 3526, "tu": 3527, "marked": 3528, "##men": 3529, "tray": 3530, "woman": 3531, "surely": 3532, "##cy": 3533, "contains": 3534, "pricing": 3535, "switches": 3536, "c1": 3537, "land": 3538, "pushes": 3539, "team": 3540, "glide": 3541, "technical": 3542, "locations": 3543, "refurbished": 3544, "glow": 3545, "##ming": 3546, "intend": 3547, "todd": 3548, "lap": 3549, "preventing": 3550, "disappear": 3551, "##lea": 3552, "resolved": 3553, "manufacture": 3554, "tore": 3555, "##aa": 3556, "##rge": 3557, "compensated": 3558, "quiet": 3559, "ty": 3560, "##me": 3561, "periods": 3562, "lightly": 3563, "##ms": 3564, "fourth": 3565, "curves": 3566, "female": 3567, "teenage": 3568, "##ill": 3569, "##ci": 3570, "creating": 3571, "march": 3572, "instance": 3573, "remained": 3574, "23": 3575, "films": 3576, "generous": 3577, "##bo": 3578, "rings": 3579, "bat": 3580, "tie": 3581, "camp": 3582, "hotel": 3583, "vehicles": 3584, "##ered": 3585, "frequent": 3586, "cat": 3587, "beast": 3588, "impacts": 3589, "invest": 3590, "##ete": 3591, "ounce": 3592, "muffled": 3593, "##eria": 3594, "28": 3595, "navigate": 3596, "fresh": 3597, "stretches": 3598, "bends": 3599, "##ons": 3600, "cancel": 3601, "folding": 3602, "arrives": 3603, "jo": 3604, "##int": 3605, "##gging": 3606, "manufactured": 3607, "##ant": 3608, "dumb": 3609, "loops": 3610, "april": 3611, "competitors": 3612, "##cd": 3613, "bedroom": 3614, "carriers": 3615, "li": 3616, "potentially": 3617, "##tti": 3618, "dot": 3619, "beef": 3620, "harm": 3621, "##not": 3622, "touched": 3623, "apparent": 3624, "glitter": 3625, "##cu": 3626, "torn": 3627, "##ics": 3628, "evening": 3629, "##he": 3630, "men": 3631, "assemble": 3632, "clicks": 3633, "##vi": 3634, "privacy": 3635, "terribly": 3636, "gladly": 3637, "precision": 3638, "confirm": 3639, "recognized": 3640, "##ology": 3641, "ce": 3642, "lived": 3643, "sounded": 3644, "dress": 3645, "miles": 3646, "01": 3647, "posting": 3648, "confused": 3649, "expectation": 3650, "books": 3651, "casual": 3652, "welcome": 3653, "gaming": 3654, "desire": 3655, "med": 3656, "determine": 3657, "rapidly": 3658, "june": 3659, "##ii": 3660, "fashionable": 3661, "##wi": 3662, "competition": 3663, "toward": 3664, "benefits": 3665, "supposedly": 3666, "hangs": 3667, "##fed": 3668, "screwed": 3669, "brittle": 3670, "92": 3671, "##osition": 3672, "vibration": 3673, "yours": 3674, "pointed": 3675, "cross": 3676, "ski": 3677, "stretching": 3678, "communication": 3679, "##imeter": 3680, "clearer": 3681, "##ins": 3682, "af": 3683, "##go": 3684, "coil": 3685, "sided": 3686, "clicking": 3687, "butter": 3688, "##ably": 3689, "##ini": 3690, "##ti": 3691, "clever": 3692, "estimated": 3693, "coat": 3694, "occur": 3695, "da": 3696, "backs": 3697, "##ny": 3698, "wiped": 3699, "naturally": 3700, "flashing": 3701, "frost": 3702, "transaction": 3703, "repeatedly": 3704, "pet": 3705, "##stor": 3706, "nylon": 3707, "reins": 3708, "enhance": 3709, "warned": 3710, "temporary": 3711, "ridges": 3712, "##cre": 3713, "theirs": 3714, "neatly": 3715, "##ta": 3716, "zoom": 3717, "##vy": 3718, "400": 3719, "habit": 3720, "nephew": 3721, "cares": 3722, "48": 3723, "##ous": 3724, "##my": 3725, "dose": 3726, "pr": 3727, "regards": 3728, "nano": 3729, "couch": 3730, "##ok": 3731, "remarks": 3732, "distracting": 3733, "proximity": 3734, "teenager": 3735, "goodness": 3736, "begins": 3737, "ap": 3738, "phenomena": 3739, "rubbed": 3740, "searched": 3741, "##iable": 3742, "hurry": 3743, "insane": 3744, "pavement": 3745, "hundred": 3746, "liner": 3747, "##ens": 3748, "##bic": 3749, "skinny": 3750, "nobody": 3751, "##ig": 3752, "27": 3753, "bracket": 3754, "##ol": 3755, "clothes": 3756, "71": 3757, "instant": 3758, "worthy": 3759, "##for": 3760, "vivid": 3761, "##ib": 3762, "encountered": 3763, "fight": 3764, "locate": 3765, "accurately": 3766, "accent": 3767, "ed": 3768, "##ut": 3769, "hesitation": 3770, "backwards": 3771, "elements": 3772, "assumed": 3773, "women": 3774, "headache": 3775, "##ia": 3776, "dream": 3777, "##tz": 3778, "sorts": 3779, "sincere": 3780, "inspection": 3781, "bullet": 3782, "expose": 3783, "cement": 3784, "##ated": 3785, "rides": 3786, "##test": 3787, "edition": 3788, "chunk": 3789, "dealing": 3790, "unfortunate": 3791, "favorites": 3792, "thorough": 3793, "reinforced": 3794, "##ama": 3795, "##let": 3796, "bear": 3797, "irritating": 3798, "attempting": 3799, "##amps": 3800, "shoot": 3801, "inferior": 3802, "razor": 3803, "hello": 3804, "louder": 3805, "bubbling": 3806, "attracts": 3807, "##one": 3808, "draining": 3809, "##nction": 3810, "##lessly": 3811, "lenses": 3812, "newest": 3813, "applies": 3814, "helping": 3815, "##si": 3816, "sparkle": 3817, "department": 3818, "improvements": 3819, "flu": 3820, "##bbly": 3821, "##watch": 3822, "brushed": 3823, "bags": 3824, "winter": 3825, "social": 3826, "requested": 3827, "wasting": 3828, "effects": 3829, "differences": 3830, "presses": 3831, "##aid": 3832, "ag": 3833, "adequately": 3834, "mono": 3835, "objects": 3836, "85": 3837, "##nte": 3838, "##va": 3839, "proved": 3840, "simplicity": 3841, "ju": 3842, "##manship": 3843, "4a": 3844, "##pers": 3845, "overseas": 3846, "requirements": 3847, "a1": 3848, "evaluate": 3849, "city": 3850, "##les": 3851, "secondly": 3852, "defects": 3853, "physically": 3854, "promotion": 3855, "zipper": 3856, "minimize": 3857, "boom": 3858, "##lar": 3859, "##imus": 3860, "settled": 3861, "regard": 3862, "bb": 3863, "maker": 3864, "rotating": 3865, "asa": 3866, "dozens": 3867, "requiring": 3868, "##ded": 3869, "unlimited": 3870, "##pre": 3871, "##nded": 3872, "rewards": 3873, "##pi": 3874, "patient": 3875, "##ched": 3876, "##pm": 3877, "wheel": 3878, "stolen": 3879, "mad": 3880, "##red": 3881, "fool": 3882, "pairs": 3883, "bounced": 3884, "insight": 3885, "catches": 3886, "##ite": 3887, "##la": 3888, "measured": 3889, "towel": 3890, "happily": 3891, "deciding": 3892, "wiping": 3893, "pristine": 3894, "prefect": 3895, "##ept": 3896, "assist": 3897, "skins": 3898, "maintains": 3899, "project": 3900, "december": 3901, "convinced": 3902, "stating": 3903, "incentives": 3904, "nasty": 3905, "##cased": 3906, "monetary": 3907, "defeats": 3908, "wanna": 3909, "household": 3910, "uneven": 3911, "visibility": 3912, "braid": 3913, "bits": 3914, "exceptionally": 3915, "ships": 3916, "ali": 3917, "ing": 3918, "street": 3919, "sucked": 3920, "xl": 3921, "bold": 3922, "##ches": 3923, "##ow": 3924, "##ure": 3925, "anticipated": 3926, "loosely": 3927, "overlap": 3928, "##ship": 3929, "burn": 3930, "vents": 3931, "exercise": 3932, "##uis": 3933, "speedy": 3934, "collects": 3935, "##lt": 3936, "map": 3937, "fore": 3938, "fm": 3939, "alert": 3940, "ah": 3941, "##gie": 3942, "grease": 3943, "displayed": 3944, "annoyed": 3945, "building": 3946, "dc": 3947, "hugs": 3948, "uncovered": 3949, "backed": 3950, "repeated": 3951, "stunning": 3952, "mal": 3953, "competitive": 3954, "aspects": 3955, "ji": 3956, "ku": 3957, "outputs": 3958, "unsure": 3959, "##olio": 3960, "lately": 3961, "plans": 3962, "inca": 3963, "##power": 3964, "explained": 3965, "affiliated": 3966, "##ving": 3967, "sick": 3968, "kill": 3969, "delay": 3970, "resolve": 3971, "##uc": 3972, "##pon": 3973, "travels": 3974, "bi": 3975, "object": 3976, "basics": 3977, "qc": 3978, "motorcycle": 3979, "iii": 3980, "treat": 3981, "million": 3982, "knob": 3983, "reliability": 3984, "craftsman": 3985, "quad": 3986, "##an": 3987, "warped": 3988, "watches": 3989, "##ron": 3990, "chair": 3991, "activity": 3992, "blown": 3993, "intermittent": 3994, "rhine": 3995, "plane": 3996, "dried": 3997, "lesson": 3998, "considerably": 3999, "ea": 4000, "percentage": 4001, "##rmin": 4002, "friday": 4003, "heating": 4004, "resting": 4005, "chi": 4006, "differently": 4007, "mate": 4008, "hooks": 4009, "angled": 4010, "interchange": 4011, "sacrifice": 4012, "surprising": 4013, "girls": 4014, "bedside": 4015, "##res": 4016, "sep": 4017, "accidents": 4018, "faux": 4019, "boat": 4020, "shelf": 4021, "fee": 4022, "category": 4023, "hardness": 4024, "tension": 4025, "improves": 4026, "valuable": 4027, "##90": 4028, "enable": 4029, "65": 4030, "##ors": 4031, "sites": 4032, "views": 4033, "##suit": 4034, "root": 4035, "emergencies": 4036, "incoming": 4037, "##ca": 4038, "stability": 4039, "##lore": 4040, "ua": 4041, "suffer": 4042, "##ap": 4043, "blast": 4044, "mesh": 4045, "disconnected": 4046, "grasp": 4047, "choosing": 4048, "earned": 4049, "spill": 4050, "triple": 4051, "ri": 4052, "assure": 4053, "longest": 4054, "worker": 4055, "fog": 4056, "prove": 4057, "##mute": 4058, "pandora": 4059, "##ili": 4060, "channel": 4061, "##ec": 4062, "##cr": 4063, "##uch": 4064, "temperature": 4065, "shattering": 4066, "##man": 4067, "letter": 4068, "equivalent": 4069, "eh": 4070, "produced": 4071, "##cted": 4072, "indicating": 4073, "shutter": 4074, "faced": 4075, "##da": 4076, "utilize": 4077, "##ace": 4078, "##50": 4079, "reaching": 4080, "accordingly": 4081, "pixels": 4082, "boring": 4083, "42": 4084, "##iest": 4085, "resulting": 4086, "##ore": 4087, "##pen": 4088, "##bed": 4089, "graphics": 4090, "browser": 4091, "songs": 4092, "quarter": 4093, "##ica": 4094, "stain": 4095, "authentic": 4096, "keeper": 4097, "parking": 4098, "##yr": 4099, "thread": 4100, "surfing": 4101, "college": 4102, "capture": 4103, "public": 4104, "tangle": 4105, "challenging": 4106, "specifications": 4107, "relative": 4108, "failing": 4109, "january": 4110, "cycles": 4111, "##bag": 4112, "##lica": 4113, "bundle": 4114, "ti": 4115, "trusted": 4116, "painted": 4117, "gum": 4118, "bien": 4119, "tel": 4120, "recording": 4121, "jumped": 4122, "verify": 4123, "##rea": 4124, "incident": 4125, "pleasure": 4126, "colour": 4127, "##king": 4128, "performing": 4129, "##di": 4130, "justice": 4131, "vulnerable": 4132, "##pack": 4133, "##board": 4134, "august": 4135, "albeit": 4136, "smoke": 4137, "guaranteed": 4138, "vr": 4139, "joint": 4140, "deeper": 4141, "leads": 4142, "hint": 4143, "technically": 4144, "drove": 4145, "readily": 4146, "letters": 4147, "##ab": 4148, "##ious": 4149, "##udes": 4150, "cha": 4151, "lady": 4152, "icons": 4153, "october": 4154, "##ude": 4155, "modify": 4156, "fish": 4157, "optimal": 4158, "##70": 4159, "increases": 4160, "pea": 4161, "##tive": 4162, "supplies": 4163, "clearance": 4164, "##dos": 4165, "november": 4166, "optional": 4167, "180": 4168, "damp": 4169, "##rm": 4170, "continuously": 4171, "reflection": 4172, "parents": 4173, "configuration": 4174, "plant": 4175, "tracking": 4176, "powers": 4177, "appeal": 4178, "guides": 4179, "crooked": 4180, "##ger": 4181, "garage": 4182, "##tour": 4183, "##der": 4184, "article": 4185, "##use": 4186, "sink": 4187, "unusual": 4188, "##ld": 4189, "2000": 4190, "log": 4191, "##beat": 4192, "##aking": 4193, "footprint": 4194, "bugs": 4195, "cake": 4196, "entry": 4197, "visually": 4198, "killer": 4199, "##ad": 4200, "##ede": 4201, "limits": 4202, "##ces": 4203, "assured": 4204, "telephone": 4205, "##zed": 4206, "seemingly": 4207, "##tu": 4208, "respect": 4209, "curious": 4210, "automatic": 4211, "flight": 4212, "settle": 4213, "snow": 4214, "prevented": 4215, "harsh": 4216, "##gged": 4217, "death": 4218, "bottle": 4219, "nuts": 4220, "indication": 4221, "900": 4222, "cloudy": 4223, "ca": 4224, "blink": 4225, "##onne": 4226, "commented": 4227, "moments": 4228, "stains": 4229, "reflective": 4230, "swear": 4231, "translucent": 4232, "history": 4233, "regrets": 4234, "necessity": 4235, "blade": 4236, "roads": 4237, "refused": 4238, "whose": 4239, "thankful": 4240, "##ole": 4241, "bud": 4242, "unacceptable": 4243, "closest": 4244, "##ten": 4245, "altogether": 4246, "electric": 4247, "similarly": 4248, "cousin": 4249, "successful": 4250, "cent": 4251, "bus": 4252, "travelling": 4253, "concerning": 4254, "workers": 4255, "impress": 4256, "##vot": 4257, "sir": 4258, "afterwards": 4259, "##mbling": 4260, "tearing": 4261, "wrapping": 4262, "talked": 4263, "stellar": 4264, "blinking": 4265, "##vis": 4266, "metro": 4267, "styling": 4268, "##dy": 4269, "##met": 4270, "cc": 4271, "engineered": 4272, "docks": 4273, "hike": 4274, "ms": 4275, "song": 4276, "rotation": 4277, "61": 4278, "sharing": 4279, "stations": 4280, "coated": 4281, "deter": 4282, "jam": 4283, "splash": 4284, "computers": 4285, "mi": 4286, "utility": 4287, "gauge": 4288, "silence": 4289, "rendering": 4290, "rests": 4291, "beside": 4292, "batch": 4293, "reaches": 4294, "seals": 4295, "researched": 4296, "tuck": 4297, "ensures": 4298, "greasy": 4299, "grim": 4300, "stones": 4301, "scheme": 4302, "bass": 4303, "genius": 4304, "selected": 4305, "partial": 4306, "reduction": 4307, "##ey": 4308, "deals": 4309, "subject": 4310, "cho": 4311, "qualities": 4312, "##light": 4313, "supplier": 4314, "accordance": 4315, "shi": 4316, "##tt": 4317, "dangerous": 4318, "##pate": 4319, "tasks": 4320, "##press": 4321, "fuzzy": 4322, "sees": 4323, "vendors": 4324, "links": 4325, "study": 4326, "spark": 4327, "industry": 4328, "##nc": 4329, "tangled": 4330, "##60": 4331, "cents": 4332, "##80": 4333, "lou": 4334, "airport": 4335, "deserve": 4336, "secondary": 4337, "exceeds": 4338, "##utter": 4339, "unexpected": 4340, "relief": 4341, "polished": 4342, "affects": 4343, "98": 4344, "answering": 4345, "returns": 4346, "floors": 4347, "string": 4348, "##stones": 4349, "activation": 4350, "messaging": 4351, "proprietary": 4352, "coffee": 4353, "disappeared": 4354, "presentation": 4355, "pun": 4356, "##ox": 4357, "asphalt": 4358, "alternatives": 4359, "solar": 4360, "sweaty": 4361, "ds": 4362, "ignore": 4363, "errors": 4364, "measures": 4365, "sophisticated": 4366, "##fer": 4367, "involved": 4368, "promises": 4369, "lemon": 4370, "fading": 4371, "##xi": 4372, "monthly": 4373, "scroll": 4374, "seated": 4375, "ye": 4376, "##wee": 4377, "controller": 4378, "vision": 4379, "fingernails": 4380, "grabbed": 4381, "ann": 4382, "events": 4383, "straightforward": 4384, "spread": 4385, "##hh": 4386, "spectacular": 4387, "briefcase": 4388, "neutral": 4389, "sum": 4390, "limitations": 4391, "##oc": 4392, "hung": 4393, "yu": 4394, "trend": 4395, "flow": 4396, "freak": 4397, "eight": 4398, "passenger": 4399, "##ua": 4400, "interest": 4401, "120": 4402, "precious": 4403, "destroy": 4404, "fluid": 4405, "theory": 4406, "##ila": 4407, "ice": 4408, "inter": 4409, "tapping": 4410, "freedom": 4411, "##ect": 4412, "##fr": 4413, "advanced": 4414, "pages": 4415, "##tes": 4416, "freaking": 4417, "indicators": 4418, "38": 4419, "sac": 4420, "whistle": 4421, "understanding": 4422, "carbon": 4423, "polish": 4424, "perimeter": 4425, "seven": 4426, "neon": 4427, "cart": 4428, "##ides": 4429, "tops": 4430, "##umi": 4431, "##key": 4432, "tremendous": 4433, "op": 4434, "sections": 4435, "statement": 4436, "##pt": 4437, "circular": 4438, "consumers": 4439, "yo": 4440, "suits": 4441, "lowest": 4442, "##lly": 4443, "geek": 4444, "##mes": 4445, "##paper": 4446, "exist": 4447, "##tility": 4448, "mentioning": 4449, "##gi": 4450, "floating": 4451, "smells": 4452, "spaces": 4453, "suited": 4454, "separating": 4455, "clothing": 4456, "format": 4457, "distorted": 4458, "##osing": 4459, "assembled": 4460, "pp": 4461, "considerable": 4462, "##zz": 4463, "##oy": 4464, "somebody": 4465, "##just": 4466, "gain": 4467, "systems": 4468, "punch": 4469, "planned": 4470, "##oz": 4471, "lays": 4472, "washing": 4473, "brief": 4474, "stained": 4475, "kits": 4476, "steam": 4477, "hu": 4478, "afternoon": 4479, "tied": 4480, "ki": 4481, "##hy": 4482, "plates": 4483, "##hi": 4484, "joy": 4485, "shoulder": 4486, "schedule": 4487, "reflects": 4488, "september": 4489, "branding": 4490, "score": 4491, "mood": 4492, "stairs": 4493, "microsoft": 4494, "##unt": 4495, "commands": 4496, "unbelievable": 4497, "rush": 4498, "39": 4499, "federal": 4500, "##bar": 4501, "nevertheless": 4502, "trial": 4503, "lunch": 4504, "##lay": 4505, "management": 4506, "photography": 4507, "bringing": 4508, "grown": 4509, "dusty": 4510, "##bank": 4511, "##ost": 4512, "##ization": 4513, "weigh": 4514, "dish": 4515, "owns": 4516, "33": 4517, "realistic": 4518, "trigger": 4519, "environments": 4520, "echo": 4521, "##ay": 4522, "figuring": 4523, "##rg": 4524, "##weig": 4525, "##hot": 4526, "surround": 4527, "efficiency": 4528, "taller": 4529, "36": 4530, "mouth": 4531, "command": 4532, "production": 4533, "expense": 4534, "protruding": 4535, "##kers": 4536, "strain": 4537, "immediate": 4538, "ko": 4539, "##po": 4540, "lifts": 4541, "55": 4542, "monster": 4543, "europe": 4544, "ghost": 4545, "rom": 4546, "goal": 4547, "nowadays": 4548, "ja": 4549, "diameter": 4550, "possibility": 4551, "accuracy": 4552, "##bl": 4553, "lithium": 4554, "oddly": 4555, "fiance": 4556, "##sto": 4557, "definition": 4558, "##her": 4559, "eat": 4560, "oversized": 4561, "noisy": 4562, "engineering": 4563, "vote": 4564, "maintaining": 4565, "##sas": 4566, "sheets": 4567, "trident": 4568, "fighting": 4569, "##ctable": 4570, "programs": 4571, "fixing": 4572, "meeting": 4573, "outward": 4574, "##bra": 4575, "largest": 4576, "feminine": 4577, "##lli": 4578, "ripping": 4579, "blows": 4580, "ion": 4581, "wound": 4582, "##ew": 4583, "symmetry": 4584, "##rd": 4585, "sore": 4586, "##tech": 4587, "velvet": 4588, "transferring": 4589, "lee": 4590, "mod": 4591, "equipped": 4592, "render": 4593, "gloves": 4594, "##nk": 4595, "est": 4596, "breath": 4597, "rectangular": 4598, "hides": 4599, "paste": 4600, "lid": 4601, "luxury": 4602, "mb": 4603, "##wn": 4604, "`": 4605, "chosen": 4606, "simpler": 4607, "surrounds": 4608, "satisfactory": 4609, "problematic": 4610, "retain": 4611, "reputation": 4612, "maneuver": 4613, "rattle": 4614, "##sca": 4615, "navy": 4616, "49": 4617, "31": 4618, "bells": 4619, "##ied": 4620, "##21": 4621, "nightmare": 4622, "scotch": 4623, "airplane": 4624, "verified": 4625, "grooves": 4626, "native": 4627, "sleeping": 4628, "players": 4629, "interfering": 4630, "knowledge": 4631, "continuous": 4632, "sudden": 4633, "##wer": 4634, "sol": 4635, "chain": 4636, "storing": 4637, "ama": 4638, "calendar": 4639, "3000": 4640, "faces": 4641, "flipped": 4642, "unused": 4643, "br": 4644, "##are": 4645, "discover": 4646, "conjunction": 4647, "perspective": 4648, "pause": 4649, "agreed": 4650, "war": 4651, "itunes": 4652, "##sight": 4653, "sr": 4654, "flagship": 4655, "jean": 4656, "leading": 4657, "##ys": 4658, "suffered": 4659, "lazy": 4660, "responsible": 4661, "##how": 4662, "doubts": 4663, "indoors": 4664, "##ht": 4665, "operates": 4666, "makers": 4667, "##nda": 4668, "##ops": 4669, "names": 4670, "scan": 4671, "fiddle": 4672, "##rt": 4673, "##tina": 4674, "follows": 4675, "target": 4676, "##ob": 4677, "sam": 4678, "alternate": 4679, "jogging": 4680, "pointless": 4681, "exposure": 4682, "##sta": 4683, "decrease": 4684, "stainless": 4685, "chat": 4686, "produces": 4687, "electricity": 4688, "achieve": 4689, "enjoys": 4690, "##chase": 4691, "cooler": 4692, "cloud": 4693, "cells": 4694, "suggestions": 4695, "disabled": 4696, "noticing": 4697, "lever": 4698, "handful": 4699, "accents": 4700, "aid": 4701, "overs": 4702, "##rand": 4703, "sloppy": 4704, "traffic": 4705, "kin": 4706, "reads": 4707, "boys": 4708, "efficiently": 4709, "launch": 4710, "tucked": 4711, "grabbing": 4712, "confirmed": 4713, "mild": 4714, "defiant": 4715, "industrial": 4716, "adult": 4717, "admitted": 4718, "responds": 4719, "ro": 4720, "##ree": 4721, "rooms": 4722, "oz": 4723, "resulted": 4724, "hitch": 4725, "##zer": 4726, "repaired": 4727, "row": 4728, "starter": 4729, "crash": 4730, "ruining": 4731, "depleted": 4732, "##ix": 4733, "##eak": 4734, "transferred": 4735, "##con": 4736, "gem": 4737, "receipt": 4738, "recognition": 4739, "##fa": 4740, "burned": 4741, "##down": 4742, "108": 4743, "##un": 4744, "reports": 4745, "integrity": 4746, "hungry": 4747, "##ned": 4748, "auxiliary": 4749, "advised": 4750, "exposing": 4751, "span": 4752, "drawing": 4753, "whom": 4754, "##mat": 4755, "replaces": 4756, "outfit": 4757, "2011": 4758, "##11": 4759, "swapped": 4760, "##ert": 4761, "legs": 4762, "warn": 4763, "networks": 4764, "budge": 4765, "##rb": 4766, "satisfying": 4767, "##wr": 4768, "##plate": 4769, "##tre": 4770, "podcast": 4771, "removes": 4772, "lean": 4773, "undone": 4774, "edited": 4775, "furthermore": 4776, "answered": 4777, "fond": 4778, "docked": 4779, "sha": 4780, "mr": 4781, "asks": 4782, "##rp": 4783, "identify": 4784, "inform": 4785, "##coming": 4786, "##gra": 4787, "##of": 4788, "ui": 4789, "2010": 4790, "stepped": 4791, "exclusively": 4792, "solutions": 4793, "##cm": 4794, "sur": 4795, "mouse": 4796, "##mal": 4797, "walked": 4798, "coloring": 4799, "messy": 4800, "whoever": 4801, "avail": 4802, "tri": 4803, "scale": 4804, "lesser": 4805, "##mble": 4806, "##gen": 4807, "contained": 4808, "gross": 4809, "fans": 4810, "spin": 4811, "van": 4812, "rubs": 4813, "iq": 4814, "poetic": 4815, "##ugh": 4816, "groove": 4817, "layout": 4818, "##cut": 4819, "leak": 4820, "##elle": 4821, "stink": 4822, "##ffi": 4823, "##cs": 4824, "organized": 4825, "noting": 4826, "language": 4827, "coup": 4828, "marketing": 4829, "watt": 4830, "##ras": 4831, "tables": 4832, "detached": 4833, "sources": 4834, "hardest": 4835, "underwater": 4836, "bot": 4837, "##ek": 4838, "objective": 4839, "shutting": 4840, "refuse": 4841, "scrolling": 4842, "##gling": 4843, "approach": 4844, "honor": 4845, "warehouse": 4846, "south": 4847, "unlikely": 4848, "draws": 4849, "coupled": 4850, "##lr": 4851, "##tas": 4852, "train": 4853, "nose": 4854, "biking": 4855, "increasing": 4856, "monday": 4857, "##giving": 4858, "clue": 4859, "imagined": 4860, "latter": 4861, "loosened": 4862, "bored": 4863, "diamond": 4864, "hs": 4865, "sunday": 4866, "##ki": 4867, "swimming": 4868, "fumble": 4869, "hurts": 4870, "lengths": 4871, "reducing": 4872, "honda": 4873, "extent": 4874, "grateful": 4875, "accepted": 4876, "crafted": 4877, "pd": 4878, "##ify": 4879, "mat": 4880, "conversations": 4881, "##way": 4882, "offs": 4883, "surf": 4884, "buckle": 4885, "associated": 4886, "nut": 4887, "##tou": 4888, "pee": 4889, "##ati": 4890, "epic": 4891, "loading": 4892, "##day": 4893, "thousand": 4894, "##ating": 4895, "yard": 4896, "competitor": 4897, "requirement": 4898, "##gis": 4899, "hum": 4900, "driveway": 4901, "##ws": 4902, "uploaded": 4903, "lands": 4904, "justify": 4905, "tre": 4906, "##xious": 4907, "##fin": 4908, "ala": 4909, "b1": 4910, "american": 4911, "enables": 4912, "shorts": 4913, "##hesion": 4914, "steep": 4915, "heartbeat": 4916, "careless": 4917, "repairs": 4918, "##wei": 4919, "evenly": 4920, "tutor": 4921, "##ire": 4922, "continually": 4923, "##qui": 4924, "fence": 4925, "proud": 4926, "tan": 4927, "honesty": 4928, "approved": 4929, "advantages": 4930, "kidding": 4931, "hardwood": 4932, "ditch": 4933, "theme": 4934, "processing": 4935, "researching": 4936, "zen": 4937, "##art": 4938, "cpu": 4939, "##entation": 4940, "tomorrow": 4941, "rental": 4942, "cy": 4943, "##imeters": 4944, "110": 4945, "payment": 4946, "teeth": 4947, "formed": 4948, "flipping": 4949, "##tp": 4950, "toilet": 4951, "##fied": 4952, "cautious": 4953, "##gn": 4954, "turquoise": 4955, "blank": 4956, "shooting": 4957, "knocking": 4958, "encounter": 4959, "fellow": 4960, "florida": 4961, "##pop": 4962, "sucker": 4963, "accomplish": 4964, "factors": 4965, "beetle": 4966, "specified": 4967, "worlds": 4968, "pot": 4969, "decorative": 4970, "periodically": 4971, "que": 4972, "lies": 4973, "rolled": 4974, "mountain": 4975, "##truct": 4976, "##port": 4977, "sen": 4978, "rave": 4979, "platform": 4980, "devi": 4981, "unicorn": 4982, "shall": 4983, "hua": 4984, "yellowish": 4985, "studio": 4986, "##omic": 4987, "##ias": 4988, "enclosure": 4989, "extensive": 4990, "##los": 4991, "motor": 4992, "fir": 4993, "##12": 4994, "hunting": 4995, "jeep": 4996, "issued": 4997, "transfers": 4998, "acting": 4999, "tones": 5000, "loads": 5001, "forcing": 5002, "refer": 5003, "struggled": 5004, "occurred": 5005, "cf": 5006, "orders": 5007, "signals": 5008, "floppy": 5009, "forgetting": 5010, "supporting": 5011, "gig": 5012, "freezing": 5013, "dissatisfied": 5014, "attracted": 5015, "##ura": 5016, "##fl": 5017, "approx": 5018, "halfway": 5019, "daylight": 5020, "criticism": 5021, "heats": 5022, "##eg": 5023, "##ba": 5024, "reverse": 5025, "##pie": 5026, "companion": 5027, "inevitably": 5028, "fishing": 5029, "128": 5030, "muted": 5031, "##su": 5032, "ambient": 5033, "##ily": 5034, "char": 5035, "##ub": 5036, "statements": 5037, "differ": 5038, "##iza": 5039, "##free": 5040, "dread": 5041, "alive": 5042, "delighted": 5043, "creative": 5044, "##ddling": 5045, "##tic": 5046, "##gur": 5047, "structure": 5048, "##cus": 5049, "securing": 5050, "define": 5051, "##sat": 5052, "submerged": 5053, "##ering": 5054, "##sing": 5055, "express": 5056, "streamlined": 5057, "fulfilled": 5058, "smile": 5059, "feelings": 5060, "incorrect": 5061, "##mate": 5062, "innovative": 5063, "lifestyle": 5064, "mass": 5065, "expert": 5066, "##while": 5067, "##ou": 5068, "cups": 5069, "##list": 5070, "modified": 5071, "##so": 5072, "venezuela": 5073, "clicked": 5074, "wonders": 5075, "february": 5076, "bouncing": 5077, "sims": 5078, "##ong": 5079, "oct": 5080, "former": 5081, "##lock": 5082, "##ease": 5083, "##rew": 5084, "embedded": 5085, "disk": 5086, "outdated": 5087, "ba": 5088, "##kill": 5089, "extending": 5090, "ford": 5091, "##mail": 5092, "killed": 5093, "costly": 5094, "##rr": 5095, "handsome": 5096, "judge": 5097, "execution": 5098, "##rat": 5099, "collecting": 5100, "bow": 5101, "nights": 5102, "circumstances": 5103, "realizing": 5104, "frequency": 5105, "ted": 5106, "component": 5107, "observations": 5108, "functioned": 5109, "melted": 5110, "priority": 5111, "shared": 5112, "boss": 5113, "drying": 5114, "##ttle": 5115, "34": 5116, "scenario": 5117, "##ear": 5118, "tightened": 5119, "##vs": 5120, "##ko": 5121, "storm": 5122, "aa": 5123, "wiring": 5124, "documentation": 5125, "##rc": 5126, "##ul": 5127, "##osa": 5128, "loyal": 5129, "##att": 5130, "##oth": 5131, "manages": 5132, "##fully": 5133, "beneath": 5134, "sh": 5135, "hunt": 5136, "effortlessly": 5137, "intentionally": 5138, "manipulate": 5139, "symbol": 5140, "presented": 5141, "jet": 5142, "##isance": 5143, "combine": 5144, "##thed": 5145, "##hering": 5146, "pm": 5147, "scissors": 5148, "##ash": 5149, "optical": 5150, "ant": 5151, "occurs": 5152, "tumble": 5153, "accessed": 5154, "##the": 5155, "shaking": 5156, "pod": 5157, "chord": 5158, "51": 5159, "timer": 5160, "password": 5161, "abused": 5162, "urban": 5163, "roof": 5164, "240": 5165, "transparency": 5166, "warp": 5167, "weaker": 5168, "freely": 5169, "wedge": 5170, "##hing": 5171, "ladies": 5172, "biased": 5173, "jealous": 5174, "##ech": 5175, "sea": 5176, "ours": 5177, "limitation": 5178, "verdict": 5179, "satisfy": 5180, "nearby": 5181, "lips": 5182, "relationship": 5183, "avid": 5184, "97": 5185, "##ign": 5186, "##sel": 5187, "faint": 5188, "ain": 5189, "shallow": 5190, "retains": 5191, "merely": 5192, "health": 5193, "seats": 5194, "##gr": 5195, "earth": 5196, "fades": 5197, "##ises": 5198, "##ock": 5199, "##ses": 5200, "ruins": 5201, "##100": 5202, "grabs": 5203, "trimmed": 5204, "questionable": 5205, "existent": 5206, "lame": 5207, "manager": 5208, "##izing": 5209, "feed": 5210, "struggling": 5211, "golden": 5212, "len": 5213, "02": 5214, "##itive": 5215, "disaster": 5216, "##tar": 5217, "banged": 5218, "1500": 5219, "engineer": 5220, "angry": 5221, "accounts": 5222, "panels": 5223, "bomb": 5224, "inevitable": 5225, "pride": 5226, "listened": 5227, "rig": 5228, "disadvantage": 5229, "walls": 5230, "transmitter": 5231, "appropriately": 5232, "##ake": 5233, "corrected": 5234, "unreliable": 5235, "holiday": 5236, "tt": 5237, "pit": 5238, "##lp": 5239, "##eni": 5240, "##evic": 5241, "##ago": 5242, "mar": 5243, "smashed": 5244, "consists": 5245, "##erate": 5246, "blew": 5247, "flawed": 5248, "costing": 5249, "offset": 5250, "##nia": 5251, "audible": 5252, "horribly": 5253, "instructed": 5254, "exercising": 5255, "spoke": 5256, "forgotten": 5257, "05": 5258, "rolling": 5259, "finds": 5260, "##rth": 5261, "advertisement": 5262, "##gli": 5263, "ware": 5264, "##js": 5265, "1200": 5266, "ordinary": 5267, "economical": 5268, "east": 5269, "##zo": 5270, "hiding": 5271, "bias": 5272, "competing": 5273, "##ora": 5274, "brake": 5275, "painful": 5276, "dinner": 5277, "playback": 5278, "advance": 5279, "farther": 5280, "abs": 5281, "##tangle": 5282, "griffin": 5283, "##dra": 5284, "food": 5285, "bose": 5286, "forums": 5287, "jaw": 5288, "caps": 5289, "virtual": 5290, "teenagers": 5291, "##ents": 5292, "##fort": 5293, "compares": 5294, "exchanged": 5295, "##ional": 5296, "lime": 5297, "promo": 5298, "scheduled": 5299, "hug": 5300, "traction": 5301, "fe": 5302, "upgrades": 5303, "wave": 5304, "packages": 5305, "slender": 5306, "recipient": 5307, "##og": 5308, "grid": 5309, "younger": 5310, "ribbon": 5311, "stone": 5312, "fewer": 5313, "sec": 5314, "##ducted": 5315, "resort": 5316, "fills": 5317, "##tri": 5318, "##min": 5319, "conform": 5320, "##tones": 5321, "yep": 5322, "endorsement": 5323, "##40": 5324, "deck": 5325, "hog": 5326, "commission": 5327, "student": 5328, "hue": 5329, "discharged": 5330, "fooled": 5331, "abilities": 5332, "slack": 5333, "sockets": 5334, "bout": 5335, "retailer": 5336, "font": 5337, "kills": 5338, "laser": 5339, "patterns": 5340, "bench": 5341, "indoor": 5342, "350": 5343, "##ats": 5344, "doors": 5345, "modes": 5346, "balanced": 5347, "california": 5348, "strongest": 5349, "va": 5350, "individually": 5351, "ste": 5352, "steering": 5353, "unwanted": 5354, "america": 5355, "250": 5356, "releases": 5357, "##ard": 5358, "funky": 5359, "ib": 5360, "purely": 5361, "hyper": 5362, "completed": 5363, "sufficiently": 5364, "transit": 5365, "passes": 5366, "ul": 5367, "83": 5368, "threads": 5369, "sk": 5370, "inputs": 5371, "hong": 5372, "buys": 5373, "sunny": 5374, "lipstick": 5375, "intention": 5376, "borders": 5377, "alter": 5378, "retrieve": 5379, "glowing": 5380, "##ove": 5381, "hates": 5382, "recall": 5383, "severe": 5384, "mas": 5385, "sidewalk": 5386, "accumulate": 5387, "heated": 5388, "vis": 5389, "pickup": 5390, "locally": 5391, "tread": 5392, "danger": 5393, "nec": 5394, "moderately": 5395, "##ivating": 5396, "##hd": 5397, "mt": 5398, "apples": 5399, "##imo": 5400, "##ffle": 5401, "conference": 5402, "vice": 5403, "##act": 5404, "lover": 5405, "kay": 5406, "consuming": 5407, "##mas": 5408, "estimate": 5409, "unknown": 5410, "streaks": 5411, "ratio": 5412, "plastics": 5413, "hinges": 5414, "##ack": 5415, "reserve": 5416, "strictly": 5417, "720": 5418, "tempted": 5419, "addressed": 5420, "sounding": 5421, "toyota": 5422, "entering": 5423, "inadvertently": 5424, "##nate": 5425, "contrary": 5426, "downward": 5427, "poke": 5428, "champagne": 5429, "72": 5430, "walks": 5431, "trap": 5432, "tossing": 5433, "shocks": 5434, "amounts": 5435, "255": 5436, "cs": 5437, "pcs": 5438, "##omp": 5439, "tracks": 5440, "secret": 5441, "procedure": 5442, "coins": 5443, "##chy": 5444, "healing": 5445, "entertainment": 5446, "##hit": 5447, "season": 5448, "##ress": 5449, "replied": 5450, "saturday": 5451, "masculine": 5452, "underside": 5453, "bolt": 5454, "instances": 5455, "meantime": 5456, "04": 5457, "tree": 5458, "obstruction": 5459, "responding": 5460, "##vie": 5461, "surrounded": 5462, "varying": 5463, "##ina": 5464, "##nce": 5465, "novelty": 5466, "purposely": 5467, "##tone": 5468, "raises": 5469, "por": 5470, "susceptible": 5471, "digging": 5472, "measurements": 5473, "busted": 5474, "polymer": 5475, "melt": 5476, "aka": 5477, "twenty": 5478, "patch": 5479, "readers": 5480, "intelligent": 5481, "kong": 5482, "obscure": 5483, "spite": 5484, "mistakes": 5485, "##ked": 5486, "io": 5487, "transition": 5488, "incorrectly": 5489, "virgin": 5490, "sandwich": 5491, "jan": 5492, "opaque": 5493, "gal": 5494, "directed": 5495, "criteria": 5496, "trickle": 5497, "##see": 5498, "##lite": 5499, "jobs": 5500, "blowing": 5501, "tune": 5502, "##glass": 5503, "crowd": 5504, "sends": 5505, "##ssi": 5506, "til": 5507, "##mers": 5508, "pronounced": 5509, "lake": 5510, "flashes": 5511, "accessibility": 5512, "portions": 5513, "grit": 5514, "##iver": 5515, "tolerance": 5516, "##bone": 5517, "\\": 5518, "transform": 5519, "void": 5520, "rotated": 5521, "gma": 5522, "behold": 5523, "dealt": 5524, "fusion": 5525, "interact": 5526, "clutch": 5527, "teens": 5528, "rei": 5529, "exceed": 5530, "dl": 5531, "unstable": 5532, "meetings": 5533, "noises": 5534, "fingertips": 5535, "duration": 5536, "aqua": 5537, "hammer": 5538, "tears": 5539, "aunt": 5540, "##placed": 5541, "##15": 5542, "idiot": 5543, "##thi": 5544, "##imi": 5545, "properties": 5546, "absorbed": 5547, "slit": 5548, "voting": 5549, "springs": 5550, "para": 5551, "##hell": 5552, "##25": 5553, "cycling": 5554, "swing": 5555, "suv": 5556, "gravel": 5557, "revised": 5558, "excuse": 5559, "intensive": 5560, "marginal": 5561, "##36": 5562, "recognizes": 5563, "wins": 5564, "speaks": 5565, "##0s": 5566, "6th": 5567, "##gating": 5568, "##bling": 5569, "refuses": 5570, "demand": 5571, "presents": 5572, "silky": 5573, "5000": 5574, "ina": 5575, "laugh": 5576, "##au": 5577, "520": 5578, "grill": 5579, "unexpectedly": 5580, "woke": 5581, "lifespan": 5582, "synthetic": 5583, "human": 5584, "upcoming": 5585, "eating": 5586, "210": 5587, "girlfriends": 5588, "ending": 5589, "san": 5590, "explanation": 5591, "tower": 5592, "##acle": 5593, "communicate": 5594, "##gned": 5595, "representative": 5596, "##dd": 5597, "##tek": 5598, "inclined": 5599, "estate": 5600, "viewed": 5601, "##card": 5602, "##hed": 5603, "enjoyable": 5604, "layered": 5605, "ownership": 5606, "tightening": 5607, "smoothing": 5608, "slap": 5609, "##hoot": 5610, "transport": 5611, "restore": 5612, "cushions": 5613, "severely": 5614, "suggests": 5615, "sheer": 5616, "distraction": 5617, "twitter": 5618, "transmit": 5619, "sy": 5620, "thunder": 5621, "##jo": 5622, "discontinued": 5623, "cab": 5624, "##cas": 5625, "highway": 5626, "##over": 5627, "develop": 5628, "06": 5629, "instructional": 5630, "##ache": 5631, "engage": 5632, "substantially": 5633, "separates": 5634, "2018": 5635, "##ian": 5636, "registered": 5637, "rendered": 5638, "descriptions": 5639, "discreet": 5640, "gu": 5641, "jumping": 5642, "haze": 5643, "markings": 5644, "##ities": 5645, "countries": 5646, "folder": 5647, "scary": 5648, "220": 5649, "##fect": 5650, "praise": 5651, "wondered": 5652, "hopeful": 5653, "ink": 5654, "landing": 5655, "zone": 5656, "##tel": 5657, "cast": 5658, "fifth": 5659, "remedy": 5660, "##ght": 5661, "temper": 5662, "outline": 5663, "flew": 5664, "gems": 5665, "lamp": 5666, "63": 5667, "designer": 5668, "dil": 5669, "rooted": 5670, "taped": 5671, "surge": 5672, "dangling": 5673, "ace": 5674, "remarkable": 5675, "##tter": 5676, "##nic": 5677, "chest": 5678, "jewel": 5679, "##dc": 5680, "packet": 5681, "fortune": 5682, "bean": 5683, "chewed": 5684, "88": 5685, "gt": 5686, "modification": 5687, "3a": 5688, "sms": 5689, "notorious": 5690, "magical": 5691, "##cle": 5692, "experiment": 5693, "##ph": 5694, "ke": 5695, "reveal": 5696, "puppy": 5697, "wit": 5698, "spider": 5699, "preserve": 5700, "sv": 5701, "sin": 5702, "bay": 5703, "##rks": 5704, "##bel": 5705, "distinguish": 5706, "##17": 5707, "seeking": 5708, "##cent": 5709, "trail": 5710, "selecting": 5711, "##star": 5712, "invested": 5713, "insertion": 5714, "##ups": 5715, "##around": 5716, "ep": 5717, "inn": 5718, "##zy": 5719, "dna": 5720, "forces": 5721, "gravity": 5722, "bicycle": 5723, "prepare": 5724, "brush": 5725, "adaptive": 5726, "heights": 5727, "##cier": 5728, "##iti": 5729, "##rem": 5730, "ages": 5731, "rm": 5732, "professionally": 5733, "##form": 5734, "##rri": 5735, "determined": 5736, "03": 5737, "##ggy": 5738, "##wo": 5739, "manly": 5740, "pound": 5741, "debating": 5742, "contain": 5743, "answers": 5744, "savings": 5745, "##ui": 5746, "intense": 5747, "nonsense": 5748, "##bby": 5749, "faith": 5750, "stopping": 5751, "compensate": 5752, "personality": 5753, "cruz": 5754, "narrower": 5755, "outfits": 5756, "websites": 5757, "combinations": 5758, "substitute": 5759, "moreover": 5760, "shove": 5761, "shin": 5762, "makeup": 5763, "satin": 5764, "pokemon": 5765, "##ink": 5766, "eligible": 5767, "container": 5768, "hmm": 5769, "accepts": 5770, "wary": 5771, "##and": 5772, "curvature": 5773, "kn": 5774, "lowered": 5775, "doubled": 5776, "##ton": 5777, "08": 5778, "##ching": 5779, "partner": 5780, "59": 5781, "##ust": 5782, "sharpe": 5783, "launcher": 5784, "##ag": 5785, "burning": 5786, "crossed": 5787, "paranoid": 5788, "^": 5789, "drill": 5790, "##ative": 5791, "incompatible": 5792, "##oop": 5793, "##ere": 5794, "pointing": 5795, "editing": 5796, "dia": 5797, "ticket": 5798, "vine": 5799, "##16": 5800, "spouse": 5801, "09": 5802, "community": 5803, "##cel": 5804, "chew": 5805, "sho": 5806, "costume": 5807, "measuring": 5808, "##ums": 5809, "tax": 5810, "boo": 5811, "experiencing": 5812, "idle": 5813, "pace": 5814, "understood": 5815, "intent": 5816, "upwards": 5817, "defense": 5818, "ol": 5819, "89": 5820, "accustomed": 5821, "moist": 5822, "polar": 5823, "##ast": 5824, "##vr": 5825, "extensively": 5826, "sake": 5827, "tha": 5828, "cube": 5829, "avoiding": 5830, "labels": 5831, "##rated": 5832, "sleeves": 5833, "flower": 5834, "overtime": 5835, "rise": 5836, "##top": 5837, "doc": 5838, "buffer": 5839, "guidelines": 5840, "##eme": 5841, "retro": 5842, "watts": 5843, "iron": 5844, "##els": 5845, "element": 5846, "##za": 5847, "tar": 5848, "graphic": 5849, "throws": 5850, "##feit": 5851, "fitness": 5852, "##omo": 5853, "##gles": 5854, "focused": 5855, "merchandise": 5856, "##lus": 5857, "modest": 5858, "foreign": 5859, "enhanced": 5860, "pei": 5861, "topped": 5862, "##him": 5863, "booklet": 5864, "halves": 5865, "bog": 5866, "cancellation": 5867, "partly": 5868, "stationary": 5869, "bra": 5870, "hood": 5871, "compromised": 5872, "armour": 5873, "remind": 5874, "##par": 5875, "##aver": 5876, "##oh": 5877, "ka": 5878, "##rate": 5879, "##sin": 5880, "begun": 5881, "##je": 5882, "receives": 5883, "lists": 5884, "dime": 5885, "central": 5886, "pens": 5887, "bam": 5888, "substance": 5889, "endless": 5890, "##32": 5891, "promising": 5892, "##19": 5893, "fortunate": 5894, "temporarily": 5895, "##dp": 5896, "detected": 5897, "320": 5898, "oriented": 5899, "44": 5900, "reminder": 5901, "mor": 5902, "remotely": 5903, "sensation": 5904, "##ings": 5905, "handheld": 5906, "##yn": 5907, "impacted": 5908, "towers": 5909, "##promising": 5910, "texas": 5911, "ate": 5912, "feb": 5913, "luxurious": 5914, "grocery": 5915, "##cky": 5916, "dimension": 5917, "bio": 5918, "750": 5919, "dogs": 5920, "##uate": 5921, "dell": 5922, "##35": 5923, "goods": 5924, "dong": 5925, "##ine": 5926, "tonight": 5927, "##uge": 5928, "unharmed": 5929, "particle": 5930, "spoiled": 5931, "##rre": 5932, "seldom": 5933, "valid": 5934, "pearl": 5935, "96": 5936, "module": 5937, "dare": 5938, "kindly": 5939, "##kat": 5940, "##ung": 5941, "##utable": 5942, "providers": 5943, "hp": 5944, "executed": 5945, "crank": 5946, "chemical": 5947, "##rita": 5948, "##if": 5949, "eco": 5950, "fulfill": 5951, "compartments": 5952, "rib": 5953, "obsessed": 5954, "borrow": 5955, "bs": 5956, "toys": 5957, "##yo": 5958, "briefly": 5959, "client": 5960, "bf": 5961, "awe": 5962, "mil": 5963, "manufactures": 5964, "cure": 5965, "inward": 5966, "delivering": 5967, "##lie": 5968, "asleep": 5969, "character": 5970, "recommends": 5971, "marketed": 5972, "belts": 5973, "warmer": 5974, "enormous": 5975, "ae": 5976, "knocks": 5977, "gestures": 5978, "ringing": 5979, "dramatically": 5980, "##hom": 5981, "uber": 5982, "950": 5983, "tastes": 5984, "dealer": 5985, "##ery": 5986, "##dia": 5987, "93": 5988, "flowers": 5989, "##bolt": 5990, "exists": 5991, "stumbled": 5992, "inconsistent": 5993, "court": 5994, "bound": 5995, "herself": 5996, "degradation": 5997, "restaurant": 5998, "cricket": 5999, "##fies": 6000, "guards": 6001, "vast": 6002, "bust": 6003, "##tagram": 6004, "152": 6005, "inhibit": 6006, "slant": 6007, "640": 6008, "frames": 6009, "behavior": 6010, "buddy": 6011, "##55": 6012, "wooden": 6013, "redesign": 6014, "evident": 6015, "growing": 6016, "planet": 6017, "##bos": 6018, "coin": 6019, "timing": 6020, "sued": 6021, "erase": 6022, "imitation": 6023, "messenger": 6024, "european": 6025, "ocean": 6026, "customized": 6027, "mines": 6028, "##cast": 6029, "woo": 6030, "##creen": 6031, "controlled": 6032, "##udged": 6033, "##than": 6034, "elevated": 6035, "arise": 6036, "coiled": 6037, "102": 6038, "rat": 6039, "radios": 6040, "##18": 6041, "tire": 6042, "finishing": 6043, "routine": 6044, "cats": 6045, "smoothed": 6046, "favorable": 6047, "wrists": 6048, "mon": 6049, "twisted": 6050, "tug": 6051, "##low": 6052, "##ggles": 6053, "technique": 6054, "rf": 6055, "fed": 6056, "##pic": 6057, "engine": 6058, "##13": 6059, "mask": 6060, "posts": 6061, "##lb": 6062, "##isi": 6063, "encourage": 6064, "actively": 6065, "##skin": 6066, "reaction": 6067, "jewels": 6068, "##grad": 6069, "sunglasses": 6070, "##gible": 6071, "##gin": 6072, "named": 6073, "ham": 6074, "feather": 6075, "##mill": 6076, "releasing": 6077, "filter": 6078, "subjective": 6079, "suffers": 6080, "##cia": 6081, "##tf": 6082, "41": 6083, "employees": 6084, "gamble": 6085, "scrub": 6086, "##lk": 6087, "serial": 6088, "compliant": 6089, "eliminated": 6090, "##eth": 6091, "07": 6092, "##ah": 6093, "chin": 6094, "designing": 6095, "destroying": 6096, "bridge": 6097, "firstly": 6098, "luggage": 6099, "counts": 6100, "foremost": 6101, "forms": 6102, "expanded": 6103, "collected": 6104, "protections": 6105, "sans": 6106, "##oa": 6107, "##date": 6108, "##hone": 6109, "##uous": 6110, "##vd": 6111, "traveled": 6112, "ch": 6113, "macro": 6114, "##mmer": 6115, "kicked": 6116, "twisting": 6117, "puck": 6118, "nov": 6119, "cream": 6120, "shoes": 6121, "destination": 6122, "dear": 6123, "private": 6124, "documents": 6125, "##rk": 6126, "crashes": 6127, "ry": 6128, "##85": 6129, "progress": 6130, "ads": 6131, "thousands": 6132, "pile": 6133, "imprint": 6134, "##hand": 6135, "confusion": 6136, "diamonds": 6137, "himself": 6138, "uh": 6139, "dependent": 6140, "##nch": 6141, "##ning": 6142, "##ner": 6143, "royal": 6144, "operations": 6145, "260": 6146, "##ctor": 6147, "index": 6148, "bye": 6149, "remarkably": 6150, "##gt": 6151, "##berry": 6152, "weekends": 6153, "avoided": 6154, "fare": 6155, "holidays": 6156, "squeezing": 6157, "##fold": 6158, "doe": 6159, "##ical": 6160, "golf": 6161, "weekly": 6162, "invention": 6163, "##ale": 6164, "##bi": 6165, "submit": 6166, "compete": 6167, "tub": 6168, "variant": 6169, "sporting": 6170, "aug": 6171, "newly": 6172, "relieved": 6173, "odor": 6174, "propped": 6175, "expands": 6176, "##mark": 6177, "weakness": 6178, "##nged": 6179, "laws": 6180, "tissue": 6181, "##loaded": 6182, "##vn": 6183, "37": 6184, "transmission": 6185, "discomfort": 6186, "methods": 6187, "hazy": 6188, "sealing": 6189, "plea": 6190, "represents": 6191, "cooking": 6192, "stack": 6193, "650": 6194, "shells": 6195, "featured": 6196, "surprises": 6197, "diminished": 6198, "slug": 6199, "##fying": 6200, "heading": 6201, "starters": 6202, "##zers": 6203, "retaining": 6204, "##ir": 6205, "elegance": 6206, "shapes": 6207, "families": 6208, "tilted": 6209, "wee": 6210, "logos": 6211, "um": 6212, "850": 6213, "suitcase": 6214, "blaze": 6215, "##cor": 6216, "goose": 6217, "inclusion": 6218, "expansion": 6219, "et": 6220, "ignored": 6221, "believer": 6222, "##ipes": 6223, "battle": 6224, "treated": 6225, "producing": 6226, "##atic": 6227, "obsolete": 6228, "downloads": 6229, "remembered": 6230, "leaks": 6231, "##cate": 6232, "conversion": 6233, "##val": 6234, "##xa": 6235, "bone": 6236, "##500": 6237, "interfered": 6238, "genuinely": 6239, "##brates": 6240, "prefers": 6241, "dragging": 6242, "ge": 6243, "deeply": 6244, "outcome": 6245, "uv": 6246, "pitch": 6247, "##cion": 6248, "##obe": 6249, "dip": 6250, "introduced": 6251, "##33": 6252, "arises": 6253, "proceeded": 6254, "##chai": 6255, "##ears": 6256, "bas": 6257, "##stone": 6258, "##omics": 6259, "pole": 6260, "designers": 6261, "training": 6262, "flights": 6263, "il": 6264, "inspire": 6265, "reluctant": 6266, "din": 6267, "distances": 6268, "##hen": 6269, "gifted": 6270, "43": 6271, "##wire": 6272, "ideas": 6273, "assistance": 6274, "passing": 6275, "ts": 6276, "demo": 6277, "separation": 6278, "printing": 6279, "squared": 6280, "grandma": 6281, "pissed": 6282, "dense": 6283, "adults": 6284, "ito": 6285, "##tro": 6286, "weights": 6287, "##pin": 6288, "torch": 6289, "highlights": 6290, "disliked": 6291, "##iers": 6292, "##edge": 6293, "blind": 6294, "distract": 6295, "cara": 6296, "claiming": 6297, "##pod": 6298, "maximize": 6299, "cargo": 6300, "assortment": 6301, "integration": 6302, "##lat": 6303, "pale": 6304, "##pping": 6305, "operated": 6306, "##ana": 6307, "generations": 6308, "##ified": 6309, "grow": 6310, "honey": 6311, "improving": 6312, "bath": 6313, "disney": 6314, "library": 6315, "difficulties": 6316, "##all": 6317, "emi": 6318, "##rent": 6319, "spine": 6320, "69": 6321, "##zi": 6322, "alike": 6323, "##mon": 6324, "rocking": 6325, "##bine": 6326, "shoe": 6327, "stuffed": 6328, "describes": 6329, "1900": 6330, "traded": 6331, "photographer": 6332, "##work": 6333, "nine": 6334, "cone": 6335, "legitimate": 6336, "##idge": 6337, "hobby": 6338, "doctor": 6339, "##14": 6340, "receipts": 6341, "obtained": 6342, "##own": 6343, "crystals": 6344, "rule": 6345, "stem": 6346, "##65": 6347, "master": 6348, "notebook": 6349, "##eptive": 6350, "postage": 6351, "ideally": 6352, "blah": 6353, "##ado": 6354, "##worthy": 6355, "col": 6356, "##len": 6357, "ai": 6358, "##view": 6359, "conventional": 6360, "fees": 6361, "##can": 6362, "##ened": 6363, "##rky": 6364, "##gate": 6365, "##ern": 6366, "drastically": 6367, "shy": 6368, "mist": 6369, "##mont": 6370, "coral": 6371, "trans": 6372, "##iv": 6373, "acquired": 6374, "stories": 6375, "2008": 6376, "offerings": 6377, "##pass": 6378, "sole": 6379, "props": 6380, "ser": 6381, "retired": 6382, "actions": 6383, "bricks": 6384, "##air": 6385, "mexico": 6386, "##cula": 6387, "##ages": 6388, "stole": 6389, "explaining": 6390, "##bie": 6391, "tom": 6392, "abroad": 6393, "grew": 6394, "findings": 6395, "availability": 6396, "recommendations": 6397, "whichever": 6398, "king": 6399, "shifting": 6400, "meters": 6401, "keyboards": 6402, "rocket": 6403, "clarify": 6404, "awkwardly": 6405, "##rang": 6406, "notable": 6407, "demanding": 6408, "hospital": 6409, "##tory": 6410, "river": 6411, "cheers": 6412, "bases": 6413, "expired": 6414, "##ener": 6415, "##ik": 6416, "##51": 6417, "bin": 6418, "ghz": 6419, "scrap": 6420, "##rio": 6421, "continuing": 6422, "##liga": 6423, "wild": 6424, "powder": 6425, "copper": 6426, "##books": 6427, "##orted": 6428, "sprayed": 6429, "holy": 6430, "##24": 6431, "burnt": 6432, "##cise": 6433, "killing": 6434, "birds": 6435, "1800": 6436, "##ml": 6437, "belongs": 6438, "##sit": 6439, "##weight": 6440, "margin": 6441, "preferences": 6442, "mage": 6443, "outing": 6444, "leaning": 6445, "hon": 6446, "argue": 6447, "kitty": 6448, "houses": 6449, "##sen": 6450, "sisters": 6451, "ness": 6452, "a2": 6453, "##ja": 6454, "##hine": 6455, "largely": 6456, "gradually": 6457, "##aks": 6458, "humidity": 6459, "##loading": 6460, "runner": 6461, "heal": 6462, "94": 6463, "uk": 6464, "observation": 6465, "##wise": 6466, "distinct": 6467, "distinctive": 6468, "79": 6469, "##rix": 6470, "##ass": 6471, "reservations": 6472, "toast": 6473, "hazard": 6474, "mechanical": 6475, "beloved": 6476, "contra": 6477, "shakes": 6478, "requesting": 6479, "furniture": 6480, "reflected": 6481, "crush": 6482, "mud": 6483, "dresser": 6484, "korea": 6485, "faults": 6486, "##rch": 6487, "rattling": 6488, "mob": 6489, "channels": 6490, "##eous": 6491, "referring": 6492, "refined": 6493, "upward": 6494, "descent": 6495, "whilst": 6496, "volumes": 6497, "shadow": 6498, "duo": 6499, "sheen": 6500, "affecting": 6501, "##stic": 6502, "blazing": 6503, "backward": 6504, "fuse": 6505, "##long": 6506, "referred": 6507, "crucial": 6508, "overlook": 6509, "club": 6510, "##vable": 6511, "appearing": 6512, "earn": 6513, "effectiveness": 6514, "repairing": 6515, "##xy": 6516, "nearest": 6517, "commonly": 6518, "frequencies": 6519, "disagree": 6520, "sigh": 6521, "originals": 6522, "reg": 6523, "counting": 6524, "bulging": 6525, "visiting": 6526, "ru": 6527, "##away": 6528, "##oe": 6529, "specification": 6530, "dye": 6531, "ensuring": 6532, "##oss": 6533, "path": 6534, "pt": 6535, "evidence": 6536, "accomplished": 6537, "proves": 6538, "lengthy": 6539, "##che": 6540, "##wa": 6541, "68": 6542, "##eem": 6543, "shave": 6544, "52": 6545, "##elt": 6546, "colours": 6547, "##ised": 6548, "mistaken": 6549, "rural": 6550, "projects": 6551, "identification": 6552, "aging": 6553, "clients": 6554, "serving": 6555, "smelled": 6556, "parties": 6557, "##offs": 6558, "unpleasant": 6559, "##kel": 6560, "##ractive": 6561, "maintained": 6562, "##iq": 6563, "undo": 6564, "gather": 6565, "##rock": 6566, "##bas": 6567, "##max": 6568, "complex": 6569, "##xx": 6570, "booster": 6571, "db": 6572, "server": 6573, "pilot": 6574, "wishes": 6575, "warnings": 6576, "crashing": 6577, "marketplace": 6578, "##een": 6579, "compass": 6580, "shaky": 6581, "dive": 6582, "operator": 6583, "ny": 6584, "f1": 6585, "spectrum": 6586, "alleviate": 6587, "hairs": 6588, "##db": 6589, "decreased": 6590, "movements": 6591, "assurance": 6592, "glaring": 6593, "puddle": 6594, "47": 6595, "obtain": 6596, "parent": 6597, "##mount": 6598, "hat": 6599, "##22": 6600, "winds": 6601, "##lity": 6602, "marsh": 6603, "disappears": 6604, "inaccurate": 6605, "##ju": 6606, "crowded": 6607, "papers": 6608, "##ley": 6609, "math": 6610, "float": 6611, "overcome": 6612, "nintendo": 6613, "depicted": 6614, "parks": 6615, "forming": 6616, "global": 6617, "cruise": 6618, "66": 6619, "sketch": 6620, "inability": 6621, "science": 6622, "62": 6623, "plunge": 6624, "##qu": 6625, "cutter": 6626, "drawn": 6627, "##ryl": 6628, "stabilize": 6629, "##que": 6630, "reminded": 6631, "mph": 6632, "##active": 6633, "swim": 6634, "82": 6635, "multimedia": 6636, "##code": 6637, "##nh": 6638, "seek": 6639, "tricks": 6640, "##cta": 6641, "##fication": 6642, "bind": 6643, "array": 6644, "focusing": 6645, "soaked": 6646, "##ese": 6647, "army": 6648, "salt": 6649, "ia": 6650, "##hl": 6651, "delayed": 6652, "iteration": 6653, "thirty": 6654, "voices": 6655, "67": 6656, "2009": 6657, "airports": 6658, "prolonged": 6659, "temperatures": 6660, "gamer": 6661, "##cie": 6662, "ranging": 6663, "circles": 6664, "vibrations": 6665, "##asse": 6666, "roller": 6667, "concert": 6668, "armored": 6669, "taps": 6670, "limiting": 6671, "dun": 6672, "density": 6673, "sustained": 6674, "crushed": 6675, "travelers": 6676, "##ism": 6677, "##ams": 6678, "##ddy": 6679, "traveler": 6680, "##ivate": 6681, "japanese": 6682, "kicking": 6683, "modifications": 6684, "strapped": 6685, "fairness": 6686, "fia": 6687, "north": 6688, "##pine": 6689, "aforementioned": 6690, "reservation": 6691, "desirable": 6692, "iso": 6693, "displaying": 6694, "##ball": 6695, "weary": 6696, "independent": 6697, "gripped": 6698, "##umb": 6699, "##38": 6700, "resembles": 6701, "heaven": 6702, "6000": 6703, "memo": 6704, "consumption": 6705, "comparisons": 6706, "squeezed": 6707, "characteristics": 6708, "##xt": 6709, "combines": 6710, "voyager": 6711, "exciting": 6712, "depressed": 6713, "paces": 6714, "##ido": 6715, "buzz": 6716, "une": 6717, "operational": 6718, "officially": 6719, "skills": 6720, "bro": 6721, "tam": 6722, "ou": 6723, "stage": 6724, "implementation": 6725, "##tight": 6726, "crashed": 6727, "raising": 6728, "av": 6729, "pencil": 6730, "mere": 6731, "defined": 6732, "tunes": 6733, "##ivity": 6734, "eliminating": 6735, "ze": 6736, "haul": 6737, "filling": 6738, "overview": 6739, "##ang": 6740, "##27": 6741, "fur": 6742, "le": 6743, "tick": 6744, "##ular": 6745, "dump": 6746, "stray": 6747, "utterly": 6748, "tracker": 6749, "##nti": 6750, "prominent": 6751, "deleted": 6752, "edged": 6753, "##mt": 6754, "56": 6755, "quantity": 6756, "##udy": 6757, "##rou": 6758, "buff": 6759, "sustain": 6760, "##hc": 6761, "scraped": 6762, "deserved": 6763, "##az": 6764, "barrier": 6765, "apartment": 6766, "humid": 6767, "##sari": 6768, "rolls": 6769, "decoration": 6770, "presumably": 6771, "stamped": 6772, "slits": 6773, "apologize": 6774, "stud": 6775, "##net": 6776, "silk": 6777, "pathetic": 6778, "utilizing": 6779, "gm": 6780, "tail": 6781, "weighted": 6782, "decides": 6783, "##helm": 6784, "##ji": 6785, "uniform": 6786, "eats": 6787, "tour": 6788, "mit": 6789, "##mps": 6790, "mimic": 6791, "otto": 6792, "##eson": 6793, "forum": 6794, "inherent": 6795, "fashioned": 6796, "talks": 6797, "##52": 6798, "##cam": 6799, "host": 6800, "development": 6801, "headed": 6802, "46": 6803, "##arm": 6804, "shook": 6805, "##ever": 6806, "lovers": 6807, "##words": 6808, "##tem": 6809, "marking": 6810, "8th": 6811, "230": 6812, "##37": 6813, "87": 6814, "sheath": 6815, "##fle": 6816, "escape": 6817, "initiate": 6818, "jammed": 6819, "oval": 6820, "steer": 6821, "bond": 6822, "##lam": 6823, "##inkles": 6824, "##ented": 6825, "mistakenly": 6826, "130": 6827, "##real": 6828, "fry": 6829, "##tip": 6830, "recorded": 6831, "##ail": 6832, "staff": 6833, "wil": 6834, "woods": 6835, "##dge": 6836, "thou": 6837, "labor": 6838, "swayed": 6839, "timed": 6840, "ao": 6841, "anchor": 6842, "##als": 6843, "##eti": 6844, "##29": 6845, "ties": 6846, "peripheral": 6847, "##bot": 6848, "tinted": 6849, "##ves": 6850, "beneficial": 6851, "##iz": 6852, "streak": 6853, "##hang": 6854, "bite": 6855, "fatal": 6856, "tunnel": 6857, "discrete": 6858, "vastly": 6859, "bothering": 6860, "##bing": 6861, "developers": 6862, "shops": 6863, "chalk": 6864, "diagonal": 6865, "locker": 6866, "##uring": 6867, "tee": 6868, "54": 6869, "##vitt": 6870, "vacuum": 6871, "explorer": 6872, "elbow": 6873, "roaming": 6874, "logic": 6875, "drink": 6876, "##yp": 6877, "alt": 6878, "7th": 6879, "craft": 6880, "##finger": 6881, "ladder": 6882, "outrageous": 6883, "##fixed": 6884, "embarrassing": 6885, "##old": 6886, "jaws": 6887, "##lastic": 6888, "supper": 6889, "##ifies": 6890, "basement": 6891, "stripes": 6892, "overwhelming": 6893, "bleed": 6894, "##cal": 6895, "asia": 6896, "##para": 6897, "values": 6898, "##eve": 6899, "passengers": 6900, "##break": 6901, "los": 6902, "jar": 6903, "extract": 6904, "risking": 6905, "##ori": 6906, "##cable": 6907, "likewise": 6908, "leaked": 6909, "bracelet": 6910, "##resh": 6911, "canon": 6912, "##quent": 6913, "speech": 6914, "##ovo": 6915, "exit": 6916, "restrict": 6917, "##ego": 6918, "fried": 6919, "lend": 6920, "##bb": 6921, "fist": 6922, "aggressive": 6923, "##uck": 6924, "noon": 6925, "technician": 6926, "2007": 6927, "chop": 6928, "##static": 6929, "##uit": 6930, "bea": 6931, "##nl": 6932, "mart": 6933, "attributes": 6934, "internationally": 6935, "titanium": 6936, "eve": 6937, "##vating": 6938, "smash": 6939, "developer": 6940, "bell": 6941, "ting": 6942, "ras": 6943, "admire": 6944, "##table": 6945, "450": 6946, "illuminated": 6947, "relax": 6948, "pdf": 6949, "integrate": 6950, "conserve": 6951, "relatives": 6952, "buzzing": 6953, "sweating": 6954, "hollow": 6955, "mechanic": 6956, "driven": 6957, "bmw": 6958, "gigs": 6959, "##agger": 6960, "launched": 6961, "cotton": 6962, "cleared": 6963, "##oys": 6964, "medical": 6965, "conscious": 6966, "involves": 6967, "##75": 6968, "communications": 6969, "achieved": 6970, "spends": 6971, "##vc": 6972, "##link": 6973, "##31": 6974, "represented": 6975, "hawaii": 6976, "mildly": 6977, "assessment": 6978, "##ev": 6979, "##iful": 6980, "brackets": 6981, "notified": 6982, "pays": 6983, "judging": 6984, "##vic": 6985, "squeak": 6986, "filed": 6987, "buena": 6988, "##ute": 6989, "entered": 6990, "joints": 6991, "##ulating": 6992, "##rf": 6993, "pig": 6994, "##bee": 6995, "##oca": 6996, "represent": 6997, "##ren": 6998, "liquids": 6999, "lighted": 7000, "internally": 7001, "4000": 7002, "era": 7003, "pat": 7004, "parked": 7005, "aids": 7006, "##iss": 7007, "##wd": 7008, "positively": 7009, "##fp": 7010, "waking": 7011, "##53": 7012, "86": 7013, "##lot": 7014, "shrink": 7015, "gesture": 7016, "##gger": 7017, "reassuring": 7018, "import": 7019, "ky": 7020, "dvd": 7021, "outgoing": 7022, "tang": 7023, "configured": 7024, "pa": 7025, "xbox": 7026, "##ption": 7027, "tor": 7028, "untouched": 7029, "embarrassed": 7030, "##ose": 7031, "##tom": 7032, "##wing": 7033, "observed": 7034, "retailers": 7035, "tidy": 7036, "corporate": 7037, "76": 7038, "breathe": 7039, "unclear": 7040, "bundled": 7041, "redesigned": 7042, "shifts": 7043, "je": 7044, "##une": 7045, "sneak": 7046, "selections": 7047, "showcase": 7048, "##34": 7049, "commissions": 7050, "behave": 7051, "york": 7052, "gods": 7053, "##son": 7054, "dated": 7055, "hurting": 7056, "tod": 7057, "##cial": 7058, "duplicate": 7059, "banging": 7060, "overlooked": 7061, "lowering": 7062, "failures": 7063, "merchant": 7064, "screwing": 7065, "stubborn": 7066, "fork": 7067, "survivor": 7068, "dude": 7069, "org": 7070, "##ae": 7071, "##zes": 7072, "homework": 7073, "nyc": 7074, "someday": 7075, "##wc": 7076, "japan": 7077, "announced": 7078, "awake": 7079, "##onic": 7080, "surpassed": 7081, "##ctions": 7082, "employee": 7083, "78": 7084, "authorized": 7085, "testimony": 7086, "preserves": 7087, "sofa": 7088, "##pha": 7089, "58": 7090, "##eva": 7091, "outlook": 7092, "##cture": 7093, "codes": 7094, "##ight": 7095, "photograph": 7096, "grass": 7097, "##right": 7098, "onboard": 7099, "intel": 7100, "intrigued": 7101, "##26": 7102, "relying": 7103, "##ida": 7104, "differentiate": 7105, "navigator": 7106, "relies": 7107, "weighing": 7108, "strikes": 7109, "nt": 7110, "possibilities": 7111, "disclose": 7112, "sept": 7113, "united": 7114, "##lf": 7115, "##hes": 7116, "|": 7117, "spoken": 7118, "##ndo": 7119, "pounds": 7120, "##54": 7121, "commercial": 7122, "##vers": 7123, "##phile": 7124, "lab": 7125, "##39": 7126, "uncle": 7127, "##41": 7128, "##bri": 7129, "animal": 7130, "relevant": 7131, "hoop": 7132, "##rave": 7133, "brothers": 7134, "##hn": 7135, "refreshing": 7136, "homes": 7137, "tended": 7138, "##ior": 7139, "rushed": 7140, "feared": 7141, "obscured": 7142, "implemented": 7143, "swift": 7144, "losses": 7145, "##ane": 7146, "hero": 7147, "oldest": 7148, "prompted": 7149, "##sr": 7150, "amusement": 7151, "jewelry": 7152, "cared": 7153, "installations": 7154, "crop": 7155, "panic": 7156, "sporadic": 7157, "dos": 7158, "football": 7159, "predict": 7160, "react": 7161, "leap": 7162, "respectable": 7163, "##vet": 7164, "insulation": 7165, "jagged": 7166, "norm": 7167, "revision": 7168, "weaken": 7169, "##aw": 7170, "hotels": 7171, "bottoms": 7172, "##ject": 7173, "lettering": 7174, "inspected": 7175, "conde": 7176, "logical": 7177, "fatigue": 7178, "##lip": 7179, "53": 7180, "performer": 7181, "spaced": 7182, "##tle": 7183, "wishing": 7184, "##bles": 7185, "##mar": 7186, "join": 7187, "believed": 7188, "compressed": 7189, "chevy": 7190, "stripped": 7191, "checks": 7192, "corn": 7193, "##lers": 7194, "##ely": 7195, "##stick": 7196, "envy": 7197, "125": 7198, "curl": 7199, "apt": 7200, "##nder": 7201, "responsibility": 7202, "dice": 7203, "##lan": 7204, "maintenance": 7205, "exclusive": 7206, "tuesday": 7207, "##hole": 7208, "senses": 7209, "tier": 7210, "containing": 7211, "meanwhile": 7212, "##stle": 7213, "beam": 7214, "74": 7215, "scraping": 7216, "##achi": 7217, "recorder": 7218, "opera": 7219, "efforts": 7220, "##nse": 7221, "accord": 7222, "fused": 7223, "froze": 7224, "##42": 7225, "laps": 7226, "##war": 7227, "moon": 7228, "dam": 7229, "irritated": 7230, "document": 7231, "utilized": 7232, "guitar": 7233, "##rom": 7234, "converted": 7235, "yank": 7236, "##lle": 7237, "quote": 7238, "##48": 7239, "explains": 7240, "vibrating": 7241, "shocking": 7242, "consume": 7243, "##uttered": 7244, "##tore": 7245, "##ku": 7246, "addresses": 7247, "vibe": 7248, "climbing": 7249, "##ssion": 7250, "formal": 7251, "technological": 7252, "scream": 7253, "stepping": 7254, "280": 7255, "routinely": 7256, "convince": 7257, "horror": 7258, "##ez": 7259, "##ough": 7260, "caring": 7261, "template": 7262, "crown": 7263, "judgement": 7264, "terrain": 7265, "collar": 7266, "##sm": 7267, "scene": 7268, "sex": 7269, "misses": 7270, "##holder": 7271, "interaction": 7272, "organize": 7273, "thereby": 7274, "treatment": 7275, "bruises": 7276, "powerhouse": 7277, "ledge": 7278, "retention": 7279, "corresponding": 7280, "duct": 7281, "submitted": 7282, "##vin": 7283, "##ax": 7284, "builds": 7285, "las": 7286, "reporting": 7287, "reflections": 7288, "##eo": 7289, "##boy": 7290, "signed": 7291, "disrupt": 7292, "receivers": 7293, "chuck": 7294, "##car": 7295, "hack": 7296, "73": 7297, "beforehand": 7298, "twin": 7299, "students": 7300, "disturb": 7301, "ceramic": 7302, "comprehensive": 7303, "##utz": 7304, "tiles": 7305, "strive": 7306, "bangs": 7307, "lam": 7308, "complimented": 7309, "wednesday": 7310, "eric": 7311, "##breaker": 7312, "extensions": 7313, "needle": 7314, "distracted": 7315, "##isk": 7316, "##ended": 7317, "##ual": 7318, "irritation": 7319, "##rit": 7320, "##ught": 7321, "closet": 7322, "disgusting": 7323, "##ai": 7324, "shining": 7325, "nissan": 7326, "##eal": 7327, "}": 7328, "480": 7329, "##qua": 7330, "fastened": 7331, "##ye": 7332, "facts": 7333, "##ising": 7334, "brightly": 7335, "quest": 7336, "platinum": 7337, "slam": 7338, "textures": 7339, "mentions": 7340, "odds": 7341, "threaded": 7342, "gained": 7343, "bearing": 7344, "bravo": 7345, "defenders": 7346, "hardened": 7347, "##rl": 7348, "##dic": 7349, "rescue": 7350, "##neck": 7351, "controllers": 7352, "engineers": 7353, "shack": 7354, "freeway": 7355, "decreases": 7356, "insufficient": 7357, "widely": 7358, "confuse": 7359, "##ano": 7360, "##nn": 7361, "conduct": 7362, "magnificent": 7363, "trails": 7364, "arriving": 7365, "orient": 7366, "famous": 7367, "slope": 7368, "rules": 7369, "arthritis": 7370, "saturated": 7371, "burst": 7372, "##urse": 7373, "##chet": 7374, "barley": 7375, "##86": 7376, "tags": 7377, "##pire": 7378, "distant": 7379, "multitude": 7380, "burden": 7381, "marker": 7382, "weighed": 7383, "muscle": 7384, "vu": 7385, "##vious": 7386, "peoples": 7387, "endure": 7388, "10th": 7389, "prof": 7390, "canal": 7391, "##put": 7392, "desperate": 7393, "##cked": 7394, "inadequate": 7395, "parallel": 7396, "exhibit": 7397, "broad": 7398, "flicker": 7399, "hotter": 7400, "injury": 7401, "rod": 7402, "dynamic": 7403, "##tv": 7404, "variation": 7405, "responses": 7406, "##mins": 7407, "##gre": 7408, "fibers": 7409, "aluminium": 7410, "yoo": 7411, "##mu": 7412, "77": 7413, "ginger": 7414, "rack": 7415, "highs": 7416, "waistband": 7417, "##ulous": 7418, "vital": 7419, "##thing": 7420, "##oot": 7421, "##23": 7422, "photographs": 7423, "##wl": 7424, "individuals": 7425, "##city": 7426, "existed": 7427, "nightly": 7428, "stats": 7429, "##nta": 7430, "##ool": 7431, "##pd": 7432, "certification": 7433, "##ici": 7434, "negatively": 7435, "##pres": 7436, "##ples": 7437, "##44": 7438, "##mos": 7439, "simultaneous": 7440, "television": 7441, "characters": 7442, "peak": 7443, "##tical": 7444, "strangely": 7445, "incentive": 7446, "witch": 7447, "gala": 7448, "anal": 7449, "processes": 7450, "shades": 7451, "##idad": 7452, "confirmation": 7453, "strike": 7454, "spilled": 7455, "urge": 7456, "restricted": 7457, "##wind": 7458, "radar": 7459, "executive": 7460, "monitors": 7461, "kat": 7462, "##kt": 7463, "bamboo": 7464, "marvelous": 7465, "##guard": 7466, "situated": 7467, "lacked": 7468, "thursday": 7469, "##ono": 7470, "##ials": 7471, "absurd": 7472, "sis": 7473, "##47": 7474, "##note": 7475, "vegas": 7476, "lookout": 7477, "softness": 7478, "splitting": 7479, "tactical": 7480, "##rry": 7481, "##oom": 7482, "##uro": 7483, "##rest": 7484, "##tting": 7485, "screams": 7486, "yi": 7487, "##sky": 7488, "printer": 7489, "detection": 7490, "##aru": 7491, "##cer": 7492, "##rh": 7493, "##inal": 7494, "persons": 7495, "ak": 7496, "goofy": 7497, "##hp": 7498, "contracts": 7499, "bucket": 7500, "##meter": 7501, "unavailable": 7502, "presence": 7503, "expanding": 7504, "2500": 7505, "blinding": 7506, "##sier": 7507, "##45": 7508, "mazda": 7509, "membrane": 7510, "brightest": 7511, "flare": 7512, "##care": 7513, "undoubtedly": 7514, "olds": 7515, "exceeding": 7516, "gigantic": 7517, "wakes": 7518, "##uo": 7519, "##ulate": 7520, "coaster": 7521, "##eter": 7522, "##28": 7523, "alarms": 7524, "mountains": 7525, "##ka": 7526, "reversed": 7527, "respective": 7528, "hardcore": 7529, "dea": 7530, "##bat": 7531, "##lab": 7532, "reinforcement": 7533, "mobility": 7534, "doo": 7535, "enthusiast": 7536, "cry": 7537, "africa": 7538, "poking": 7539, "##ates": 7540, "variations": 7541, "specify": 7542, "eva": 7543, "flair": 7544, "sf": 7545, "delays": 7546, "##cat": 7547, "##urs": 7548, "pv": 7549, "varies": 7550, "trunk": 7551, "bulb": 7552, "##mbled": 7553, "trusting": 7554, "##dable": 7555, "blessing": 7556, "mir": 7557, "nailed": 7558, "viable": 7559, "eager": 7560, "forearm": 7561, "##asi": 7562, "contemplating": 7563, "##ters": 7564, "neighborhood": 7565, "##kes": 7566, "rag": 7567, "##rud": 7568, "pose": 7569, "conceal": 7570, "brace": 7571, "confidently": 7572, "##forms": 7573, "yahoo": 7574, "##sti": 7575, "dem": 7576, "explore": 7577, "amongst": 7578, "distributor": 7579, "tb": 7580, "pitched": 7581, "ought": 7582, "impatient": 7583, "dai": 7584, "attribute": 7585, "beta": 7586, "##cp": 7587, "bowl": 7588, "lawn": 7589, "##46": 7590, "addicted": 7591, "##usion": 7592, "striking": 7593, "civic": 7594, "este": 7595, "brakes": 7596, "twelve": 7597, "wings": 7598, "elite": 7599, "rises": 7600, "##oper": 7601, "160": 7602, "discarded": 7603, "guarantees": 7604, "tuned": 7605, "elderly": 7606, "##try": 7607, "accumulated": 7608, "settling": 7609, "##stand": 7610, "##mina": 7611, "delight": 7612, "##ance": 7613, "property": 7614, "butterfly": 7615, "##km": 7616, "tent": 7617, "trent": 7618, "gallery": 7619, "visibly": 7620, "##uld": 7621, "##tify": 7622, "##ield": 7623, "passport": 7624, "trek": 7625, "challenged": 7626, "satellite": 7627, "##you": 7628, "programmed": 7629, "blood": 7630, "scientific": 7631, "measurement": 7632, "incorporated": 7633, "horse": 7634, "insist": 7635, "##ima": 7636, "##58": 7637, "lineup": 7638, "extraordinary": 7639, "##his": 7640, "copied": 7641, "divide": 7642, "solo": 7643, "##sf": 7644, "##eck": 7645, "addict": 7646, "dodge": 7647, "thee": 7648, "##sg": 7649, "##hm": 7650, "57": 7651, "pal": 7652, "paperwork": 7653, "##ood": 7654, "capturing": 7655, "##rn": 7656, "theft": 7657, "##front": 7658, "directional": 7659, "regretted": 7660, "oversight": 7661, "waves": 7662, "##marks": 7663, "raw": 7664, "cheek": 7665, "struck": 7666, "prize": 7667, "restarted": 7668, "west": 7669, "##nee": 7670, "matrix": 7671, "hurricane": 7672, "controlling": 7673, "awaiting": 7674, "##scu": 7675, "##ead": 7676, "catcher": 7677, "##fus": 7678, "stealth": 7679, "##wy": 7680, "designated": 7681, "examples": 7682, "wreck": 7683, "##pped": 7684, "agent": 7685, "clamped": 7686, "hill": 7687, "##holes": 7688, "enabling": 7689, "flag": 7690, "##eye": 7691, "surgery": 7692, "mike": 7693, "generated": 7694, "##tm": 7695, "proceed": 7696, "importance": 7697, "como": 7698, "starbucks": 7699, "predecessor": 7700, "##set": 7701, "##ito": 7702, "arrow": 7703, "##core": 7704, "survives": 7705, "finishes": 7706, "##iy": 7707, "requests": 7708, "barrel": 7709, "toned": 7710, "trader": 7711, "apologized": 7712, "##rin": 7713, "ironically": 7714, "guessed": 7715, "##mut": 7716, "searches": 7717, "cache": 7718, "conclude": 7719, "smack": 7720, "##bm": 7721, "capt": 7722, "restored": 7723, "##ence": 7724, "##nor": 7725, "wat": 7726, "stealing": 7727, "sincerely": 7728, "astro": 7729, "developing": 7730, "staring": 7731, "detector": 7732, "##comb": 7733, "##sho": 7734, "##gm": 7735, "skill": 7736, "pets": 7737, "84": 7738, "##bread": 7739, "##bc": 7740, "##tub": 7741, "midnight": 7742, "420": 7743, "punishment": 7744, "flies": 7745, "##tarian": 7746, "inspecting": 7747, "rent": 7748, "##mir": 7749, "##week": 7750, "##ories": 7751, "pie": 7752, "##flow": 7753, "##ones": 7754, "consistency": 7755, "improper": 7756, "alongside": 7757, "gate": 7758, "##lm": 7759, "bal": 7760, "##ncy": 7761, "##hin": 7762, "styled": 7763, "wine": 7764, "tapped": 7765, "##jm": 7766, "lavender": 7767, "reveals": 7768, "preview": 7769, "fears": 7770, "biceps": 7771, "capacities": 7772, "suite": 7773, "innovation": 7774, "foil": 7775, "john": 7776, "recognizing": 7777, "##acing": 7778, "investing": 7779, "interruption": 7780, "conditioning": 7781, "neighbor": 7782, "tolerate": 7783, "##rti": 7784, "novice": 7785, "isolated": 7786, "rust": 7787, "##ein": 7788, "church": 7789, "##acious": 7790, "##af": 7791, "respectively": 7792, "concerts": 7793, "##43": 7794, "tipped": 7795, "fate": 7796, "slammed": 7797, "##tl": 7798, "brownish": 7799, "pulse": 7800, "canvas": 7801, "##ration": 7802, "blacks": 7803, "evil": 7804, "2006": 7805, "##ave": 7806, "##rance": 7807, "shielding": 7808, "##cca": 7809, "registering": 7810, "organization": 7811, "borrowed": 7812, "##ani": 7813, "configurations": 7814, "##64": 7815, "##well": 7816, "accepting": 7817, "affiliation": 7818, "nerve": 7819, "##vation": 7820, "adventures": 7821, "rivals": 7822, "##pan": 7823, "membership": 7824, "shu": 7825, "degraded": 7826, "definitive": 7827, "streets": 7828, "cooling": 7829, "##cho": 7830, "collector": 7831, "jug": 7832, "anxious": 7833, "prematurely": 7834, "stripe": 7835, "peg": 7836, "lump": 7837, "spanish": 7838, "generate": 7839, "utilizes": 7840, "{": 7841, "##gee": 7842, "adapted": 7843, "supplying": 7844, "##iam": 7845, "rice": 7846, "skeleton": 7847, "ripple": 7848, "miracle": 7849, "lent": 7850, "##bbling": 7851, "stabilization": 7852, "##oni": 7853, "baseball": 7854, "demands": 7855, "skipped": 7856, "cancelled": 7857, "bob": 7858, "adopt": 7859, "bull": 7860, "consequently": 7861, "viewer": 7862, "rug": 7863, "typed": 7864, "scenarios": 7865, "dishes": 7866, "140": 7867, "lux": 7868, "ee": 7869, "plum": 7870, "phillips": 7871, "vague": 7872, "raining": 7873, "##wk": 7874, "fiancee": 7875, "adventure": 7876, "intentional": 7877, "huh": 7878, "tugging": 7879, "enhancement": 7880, "insisted": 7881, "##66": 7882, "feat": 7883, "##run": 7884, "asset": 7885, "##59": 7886, "tilting": 7887, "incorporate": 7888, "##ced": 7889, "##ference": 7890, "ben": 7891, "##ppe": 7892, "adverse": 7893, "##uk": 7894, "notices": 7895, "critique": 7896, "collapse": 7897, "##vent": 7898, "acknowledge": 7899, "kidd": 7900, "futuristic": 7901, "144": 7902, "##ibly": 7903, "downstairs": 7904, "##log": 7905, "##sten": 7906, "##lla": 7907, "disturbing": 7908, "chords": 7909, "zebra": 7910, "##eller": 7911, "stitches": 7912, "cook": 7913, "stab": 7914, "mothers": 7915, "scanning": 7916, "finest": 7917, "wavy": 7918, "implies": 7919, "machines": 7920, "##ster": 7921, "spinning": 7922, "temps": 7923, "fires": 7924, "521": 7925, "polka": 7926, "usd": 7927, "lex": 7928, "##ien": 7929, "shoots": 7930, "##hg": 7931, "antennas": 7932, "processors": 7933, "510": 7934, "##oll": 7935, "monitoring": 7936, "##kr": 7937, "##antly": 7938, "ax": 7939, "theater": 7940, "notably": 7941, "respects": 7942, "cn": 7943, "##vu": 7944, "programming": 7945, "jumps": 7946, "discuss": 7947, "vintage": 7948, "##avi": 7949, "##pw": 7950, "##ort": 7951, "##ym": 7952, "wing": 7953, "##uz": 7954, "afterward": 7955, "##eded": 7956, "##ari": 7957, "accompanying": 7958, "charcoal": 7959, "stoke": 7960, "sway": 7961, "youngest": 7962, "slapped": 7963, "chicago": 7964, "conflict": 7965, "languages": 7966, "readings": 7967, "##ara": 7968, "##ote": 7969, "someplace": 7970, "categories": 7971, "variable": 7972, "##nty": 7973, "flick": 7974, "##gree": 7975, "forbid": 7976, "utter": 7977, "filthy": 7978, "##ided": 7979, "binding": 7980, "attraction": 7981, "##bla": 7982, "sling": 7983, "##mic": 7984, "theoretically": 7985, "knee": 7986, "512": 7987, "##3d": 7988, "##belt": 7989, "doubling": 7990, "optics": 7991, "physics": 7992, "defected": 7993, "##iff": 7994, "candi": 7995, "##sson": 7996, "organizer": 7997, "cities": 7998, "##200": 7999, "fra": 8000, "zu": 8001, "winning": 8002, "##hei": 8003, "seating": 8004, "inspect": 8005, "stamp": 8006, "standalone": 8007, "marble": 8008, "simplest": 8009, "subsequently": 8010, "outta": 8011, "trading": 8012, "##formed": 8013, "##zzy": 8014, "frozen": 8015, "trivial": 8016, "##hic": 8017, "##ution": 8018, "mirrored": 8019, "chatting": 8020, "##kk": 8021, "resources": 8022, "##berries": 8023, "samples": 8024, "spins": 8025, "grams": 8026, "labeling": 8027, "pretend": 8028, "spraying": 8029, "##eb": 8030, "mission": 8031, "boxed": 8032, "nova": 8033, "woven": 8034, "welcomed": 8035, "subsequent": 8036, "asian": 8037, "desperately": 8038, "skipping": 8039, "darkness": 8040, "warrior": 8041, "##ette": 8042, "strangers": 8043, "boating": 8044, "profit": 8045, "compelled": 8046, "clone": 8047, "hideous": 8048, "##talk": 8049, "diving": 8050, "##gan": 8051, "rd": 8052, "dunn": 8053, "aimed": 8054, "explode": 8055, "financial": 8056, "##ova": 8057, "ribs": 8058, "destroys": 8059, "anxiety": 8060, "gust": 8061, "announce": 8062, "arrangement": 8063, "sci": 8064, "##nding": 8065, "interrupt": 8066, "cp": 8067, "##56": 8068, "##ime": 8069, "2005": 8070, "##rant": 8071, "outright": 8072, "cabinet": 8073, "##pf": 8074, "resume": 8075, "mortar": 8076, "legacy": 8077, "hove": 8078, "nest": 8079, "bypass": 8080, "race": 8081, "##imum": 8082, "beaten": 8083, "##pal": 8084, "hid": 8085, "leaking": 8086, "peas": 8087, "circuits": 8088, "processed": 8089, "##wave": 8090, "productivity": 8091, "##till": 8092, "clears": 8093, "##sb": 8094, "tapes": 8095, "myriad": 8096, "spy": 8097, "polite": 8098, "emphasize": 8099, "##now": 8100, "##scribe": 8101, "namely": 8102, "balls": 8103, "fifty": 8104, "roommate": 8105, "##ece": 8106, "avoids": 8107, "1600": 8108, "##pods": 8109, "rainy": 8110, "vivo": 8111, "blades": 8112, "2d": 8113, "##dt": 8114, "peach": 8115, "##smo": 8116, "illegal": 8117, "mapping": 8118, "themes": 8119, "permit": 8120, "##nr": 8121, "##bn": 8122, "senior": 8123, "protocol": 8124, "##jack": 8125, "experimenting": 8126, "commitment": 8127, "1300": 8128, "widen": 8129, "##head": 8130, "melting": 8131, "additions": 8132, "handing": 8133, "##49": 8134, "describing": 8135, "##tions": 8136, "bread": 8137, "etched": 8138, "mandatory": 8139, "struggles": 8140, "sapphire": 8141, "smarter": 8142, "composed": 8143, "arguably": 8144, "documented": 8145, "reject": 8146, "viola": 8147, "##zu": 8148, "swell": 8149, "challenges": 8150, "##iva": 8151, "##charged": 8152, "downwards": 8153, "scare": 8154, "porch": 8155, "dates": 8156, "atm": 8157, "attracting": 8158, "decade": 8159, "contrasting": 8160, "ng": 8161, "rains": 8162, "##lco": 8163, "gathering": 8164, "hydro": 8165, "loudly": 8166, "nad": 8167, "combining": 8168, "remembering": 8169, "##grate": 8170, "xx": 8171, "scores": 8172, "analysis": 8173, "##bil": 8174, "microscopic": 8175, "chewing": 8176, "increasingly": 8177, "dt": 8178, "bland": 8179, "subjected": 8180, "abusive": 8181, "incidents": 8182, "technologies": 8183, "bun": 8184, "##tta": 8185, "rigorous": 8186, "harp": 8187, "squares": 8188, "coordinate": 8189, "ix": 8190, "##qi": 8191, "beads": 8192, "straighten": 8193, "##ule": 8194, "role": 8195, "##usions": 8196, "session": 8197, "fanny": 8198, "windy": 8199, "bones": 8200, "buried": 8201, "guest": 8202, "automobile": 8203, "##ook": 8204, "mhz": 8205, "##fire": 8206, "arizona": 8207, "whip": 8208, "tim": 8209, "records": 8210, "fines": 8211, "painfully": 8212, "##bies": 8213, "wren": 8214, "minded": 8215, "replica": 8216, "##zzi": 8217, "aged": 8218, "##ibe": 8219, "tow": 8220, "excitement": 8221, "grind": 8222, "##uded": 8223, "babies": 8224, "##ured": 8225, "##don": 8226, "goodbye": 8227, "##tie": 8228, "##film": 8229, "altered": 8230, "##powered": 8231, "suggesting": 8232, "garden": 8233, "##lic": 8234, "##ments": 8235, "region": 8236, "humble": 8237, "discovery": 8238, "salesman": 8239, "##57": 8240, "nik": 8241, "blurred": 8242, "drew": 8243, "bless": 8244, "qualify": 8245, "memories": 8246, "managing": 8247, "unfinished": 8248, "##cks": 8249, "claw": 8250, "entirety": 8251, "##ieg": 8252, "md": 8253, "lbs": 8254, "alpha": 8255, "reproduction": 8256, "wan": 8257, "##vor": 8258, "##pose": 8259, "ray": 8260, "grandmother": 8261, "drilled": 8262, "##dm": 8263, "wes": 8264, "##des": 8265, "dramatic": 8266, "revealed": 8267, "rot": 8268, "engaged": 8269, "unfamiliar": 8270, "novel": 8271, "##agne": 8272, "egg": 8273, "unaffected": 8274, "tipping": 8275, "daytime": 8276, "##hu": 8277, "rival": 8278, "resisted": 8279, "cabin": 8280, "imagination": 8281, "pity": 8282, "reflecting": 8283, "supreme": 8284, "unfair": 8285, "desert": 8286, "exiting": 8287, "arch": 8288, "flushed": 8289, "560": 8290, "##ality": 8291, "ceiling": 8292, "legal": 8293, "bonded": 8294, "##lim": 8295, "stil": 8296, "##igate": 8297, "##oids": 8298, "induction": 8299, "leverage": 8300, "caribbean": 8301, "courtesy": 8302, "##dly": 8303, "mature": 8304, "##pis": 8305, "##ser": 8306, "facilitate": 8307, "screaming": 8308, "##rily": 8309, "decline": 8310, "##rish": 8311, "sessions": 8312, "##rip": 8313, "housed": 8314, "1700": 8315, "registers": 8316, "##ider": 8317, "consist": 8318, "shifted": 8319, "penn": 8320, "##vid": 8321, "visa": 8322, "flowing": 8323, "##gne": 8324, "julia": 8325, "##aged": 8326, "ecosystem": 8327, "440": 8328, "chemicals": 8329, "blessed": 8330, "wardrobe": 8331, "translates": 8332, "104": 8333, "rt": 8334, "faithful": 8335, "##nob": 8336, "productive": 8337, "##ull": 8338, "police": 8339, "pillow": 8340, "decor": 8341, "glory": 8342, "traps": 8343, "risky": 8344, "##ao": 8345, "beige": 8346, "joined": 8347, "climate": 8348, "mx": 8349, "electro": 8350, "immensely": 8351, "wedding": 8352, "##ometer": 8353, "payments": 8354, "invented": 8355, "exchanging": 8356, "jazz": 8357, "hears": 8358, "identified": 8359, "##hab": 8360, "preparation": 8361, "ravi": 8362, "petite": 8363, "##uga": 8364, "shoved": 8365, "##sol": 8366, "island": 8367, "##tors": 8368, "##frame": 8369, "dexter": 8370, "##uted": 8371, "articles": 8372, "triggers": 8373, "filming": 8374, "shed": 8375, "##eto": 8376, "patterned": 8377, "trucks": 8378, "fifteen": 8379, "straw": 8380, "india": 8381, "##wg": 8382, "repeating": 8383, "256": 8384, "fruit": 8385, "grace": 8386, "apr": 8387, "restrictions": 8388, "torture": 8389, "colleagues": 8390, "chase": 8391, "rap": 8392, "##lent": 8393, "blog": 8394, "assumption": 8395, "featuring": 8396, "audi": 8397, "rank": 8398, "##oses": 8399, "immaculate": 8400, "##qa": 8401, "healthy": 8402, "##eed": 8403, "floral": 8404, "floats": 8405, "interfaces": 8406, "dismay": 8407, "strings": 8408, "helmet": 8409, "spoil": 8410, "##lash": 8411, "ourselves": 8412, "chu": 8413, "puff": 8414, "published": 8415, "phase": 8416, "amplifier": 8417, "unusually": 8418, "##ots": 8419, "downhill": 8420, "##wt": 8421, "introduction": 8422, "backseat": 8423, "disneyland": 8424, "grief": 8425, "structural": 8426, "deliberately": 8427, "##ctive": 8428, "arranged": 8429, "slowed": 8430, "##yx": 8431, "opportunities": 8432, "##bbled": 8433, "##bf": 8434, "showcases": 8435, "gee": 8436, "profiles": 8437, "##ulator": 8438, "##mg": 8439, "mixture": 8440, "canada": 8441, "specialized": 8442, "##ond": 8443, "keen": 8444, "##sma": 8445, "republic": 8446, "##lou": 8447, "breakers": 8448, "attack": 8449, "mel": 8450, "germany": 8451, "distribute": 8452, "wax": 8453, "shifter": 8454, "planes": 8455, "patches": 8456, "bleeding": 8457, "surviving": 8458, "##roll": 8459, "examined": 8460, "##ben": 8461, "##inge": 8462, "llc": 8463, "opener": 8464, "recovery": 8465, "subway": 8466, "snake": 8467, "##fk": 8468, "##sion": 8469, "##aba": 8470, "richer": 8471, "siding": 8472, "##hel": 8473, "840": 8474, "registration": 8475, "sequence": 8476, "portfolio": 8477, "unsafe": 8478, "##dro": 8479, "16th": 8480, "boasts": 8481, "dressed": 8482, "denim": 8483, "##vil": 8484, "shards": 8485, "retained": 8486, "proctor": 8487, "##tley": 8488, "rounds": 8489, "drip": 8490, "##cute": 8491, "groups": 8492, "##fc": 8493, "analog": 8494, "approve": 8495, "absent": 8496, "adjacent": 8497, "terminal": 8498, "basketball": 8499, "dev": 8500, "##park": 8501, "foolish": 8502, "##ition": 8503, "destruction": 8504, "##uts": 8505, "##mel": 8506, "approximate": 8507, "breakdown": 8508, "##kit": 8509, "supplement": 8510, "debbie": 8511, "spacious": 8512, "pointer": 8513, "##ln": 8514, "revealing": 8515, "committed": 8516, "assistant": 8517, "journalist": 8518, "##uw": 8519, "grady": 8520, "umm": 8521, "paragraph": 8522, "##van": 8523, "automated": 8524, "pump": 8525, "##tat": 8526, "steadily": 8527, "blunt": 8528, "##life": 8529, "restaurants": 8530, "bash": 8531, "underlying": 8532, "jerk": 8533, "##lish": 8534, "examine": 8535, "diagram": 8536, "911": 8537, "##mme": 8538, "##br": 8539, "##lass": 8540, "debated": 8541, "understands": 8542, "cong": 8543, "overhead": 8544, "##oon": 8545, "grandchildren": 8546, "##jk": 8547, "stranded": 8548, "niche": 8549, "reminiscent": 8550, "varieties": 8551, "carbonate": 8552, "incomplete": 8553, "ave": 8554, "pinched": 8555, "patiently": 8556, "##rak": 8557, "##wu": 8558, "##kle": 8559, "##our": 8560, "##olo": 8561, "agreement": 8562, "mach": 8563, "##rup": 8564, "shoulders": 8565, "abu": 8566, "##eh": 8567, "shaft": 8568, "figures": 8569, "exceptions": 8570, "animation": 8571, "braking": 8572, "mater": 8573, "az": 8574, "trace": 8575, "guests": 8576, "boots": 8577, "acquire": 8578, "doubtful": 8579, "badge": 8580, "scar": 8581, "##una": 8582, "splashed": 8583, "gut": 8584, "##was": 8585, "bronze": 8586, "##hetic": 8587, "insides": 8588, "tiled": 8589, "clash": 8590, "cherry": 8591, "smug": 8592, "converts": 8593, "translated": 8594, "terminals": 8595, "bikes": 8596, "techno": 8597, "muddy": 8598, "wrestle": 8599, "curiosity": 8600, "sacrificed": 8601, "unbearable": 8602, "##iu": 8603, "infinitely": 8604, "##lists": 8605, "conservative": 8606, "fins": 8607, "occupied": 8608, "##mc": 8609, "fort": 8610, "balancing": 8611, "fuel": 8612, "suffering": 8613, "relation": 8614, "##tch": 8615, "century": 8616, "hyundai": 8617, "loyalty": 8618, "manipulated": 8619, "pill": 8620, "likelihood": 8621, "##gc": 8622, "##play": 8623, "explosion": 8624, "harley": 8625, "filters": 8626, "##por": 8627, "punched": 8628, "swings": 8629, "##ntly": 8630, "##cend": 8631, "uncomfortably": 8632, "##av": 8633, "sandy": 8634, "##ux": 8635, "mighty": 8636, "shuffle": 8637, "##sic": 8638, "habits": 8639, "filing": 8640, "composite": 8641, "##mann": 8642, "##ira": 8643, "emblem": 8644, "ancient": 8645, "##media": 8646, "permission": 8647, "sung": 8648, "believing": 8649, "promote": 8650, "##jn": 8651, "smoked": 8652, "bodyguard": 8653, "argument": 8654, "dresses": 8655, "beau": 8656, "teach": 8657, "buildings": 8658, "italy": 8659, "instrument": 8660, "signature": 8661, "occurrence": 8662, "napkin": 8663, "markets": 8664, "harness": 8665, "wu": 8666, "clearing": 8667, "##horse": 8668, "chocolate": 8669, "captured": 8670, "rs": 8671, "##leg": 8672, "suspicious": 8673, "buddies": 8674, "gears": 8675, "dumped": 8676, "forest": 8677, "kia": 8678, "headline": 8679, "##aling": 8680, "merit": 8681, "compound": 8682, "honored": 8683, "heaviest": 8684, "bird": 8685, "preface": 8686, "##ays": 8687, "defeat": 8688, "rope": 8689, "##sis": 8690, "suspected": 8691, "defend": 8692, "journey": 8693, "swirl": 8694, "##ties": 8695, "abnormal": 8696, "absence": 8697, "skull": 8698, "erratic": 8699, "symbols": 8700, "ada": 8701, "discovering": 8702, "triangle": 8703, "##ric": 8704, "geared": 8705, "brave": 8706, "ebook": 8707, "applicable": 8708, "decorate": 8709, "disregard": 8710, "turtle": 8711, "149": 8712, "##fb": 8713, "guidance": 8714, "longtime": 8715, "illusion": 8716, "##ods": 8717, "elaborate": 8718, "tires": 8719, "ineffective": 8720, "swinging": 8721, "shirts": 8722, "shielded": 8723, "bandwidth": 8724, "convertible": 8725, "transmitting": 8726, "##ero": 8727, "quoted": 8728, "circulation": 8729, "simplified": 8730, "den": 8731, "##dio": 8732, "weave": 8733, "flickering": 8734, "splits": 8735, "anticipation": 8736, "##mx": 8737, "##cies": 8738, "irrelevant": 8739, "luke": 8740, "##most": 8741, "reinforce": 8742, "ore": 8743, "brutal": 8744, "##ound": 8745, "hockey": 8746, "##nts": 8747, "milan": 8748, "##ium": 8749, "cheated": 8750, "manipulation": 8751, "diffuse": 8752, "##fast": 8753, "##yt": 8754, "frontal": 8755, "salmon": 8756, "piano": 8757, "plagued": 8758, "hee": 8759, "fidelity": 8760, "bing": 8761, "pauses": 8762, "sewing": 8763, "owe": 8764, "##ria": 8765, "unaware": 8766, "presently": 8767, "##mun": 8768, "jerry": 8769, "199": 8770, "rhino": 8771, "occurring": 8772, "270": 8773, "##brand": 8774, "##ency": 8775, "locating": 8776, "slice": 8777, "amateur": 8778, "towels": 8779, "##pati": 8780, "resource": 8781, "overlapping": 8782, "##pressed": 8783, "introduce": 8784, "stacked": 8785, "lust": 8786, "exploring": 8787, "berry": 8788, "economy": 8789, "##like": 8790, "##eri": 8791, "hop": 8792, "fracture": 8793, "meat": 8794, "empire": 8795, "mv": 8796, "stout": 8797, "licence": 8798, "##phobic": 8799, "mystery": 8800, "zones": 8801, "##race": 8802, "transportation": 8803, "##rra": 8804, "820": 8805, "artist": 8806, "remainder": 8807, "relieve": 8808, "##iating": 8809, "nos": 8810, "topping": 8811, "fired": 8812, "##ammed": 8813, "belong": 8814, "rc": 8815, "cassette": 8816, "trees": 8817, "ark": 8818, "##ya": 8819, "##plify": 8820, "lease": 8821, "impaired": 8822, "inline": 8823, "marathon": 8824, "streams": 8825, "suppliers": 8826, "critic": 8827, "##ulated": 8828, "stranger": 8829, "assess": 8830, "korean": 8831, "##ov": 8832, "peek": 8833, "##pg": 8834, "scored": 8835, "comb": 8836, "##ashi": 8837, "integral": 8838, "##akes": 8839, "bowed": 8840, "intensity": 8841, "pending": 8842, "sponge": 8843, "belief": 8844, "##rro": 8845, "##sor": 8846, "##ited": 8847, "variants": 8848, "recover": 8849, "##pid": 8850, "painting": 8851, "##dr": 8852, "farm": 8853, "##good": 8854, "residual": 8855, "cosmetics": 8856, "proving": 8857, "declined": 8858, "##ih": 8859, "elephant": 8860, "##ross": 8861, "##sw": 8862, "ik": 8863, "##hop": 8864, "venue": 8865, "twists": 8866, "congratulations": 8867, "recipes": 8868, "amend": 8869, "##gp": 8870, "visited": 8871, "massage": 8872, "greeting": 8873, "playstation": 8874, "marvel": 8875, "##get": 8876, "redundant": 8877, "##aby": 8878, "quieter": 8879, "mechanisms": 8880, "converting": 8881, "contractor": 8882, "curb": 8883, "coast": 8884, "acted": 8885, "coa": 8886, "smeared": 8887, "subscription": 8888, "socks": 8889, "##yu": 8890, "sentence": 8891, "##hol": 8892, "burgundy": 8893, "rail": 8894, "##liness": 8895, "##vb": 8896, "animals": 8897, "##zon": 8898, "swollen": 8899, "##uration": 8900, "venture": 8901, "sunshine": 8902, "##erving": 8903, "sliced": 8904, "##sun": 8905, "supportive": 8906, "simi": 8907, "forgive": 8908, "ox": 8909, "backgrounds": 8910, "sing": 8911, "evaluating": 8912, "legend": 8913, "rigged": 8914, "spreads": 8915, "##ively": 8916, "distribution": 8917, "##ures": 8918, "impulse": 8919, "cub": 8920, "jamaica": 8921, "##cb": 8922, "shout": 8923, "tuning": 8924, "burns": 8925, "##np": 8926, "stills": 8927, "##liner": 8928, "alloy": 8929, "established": 8930, "##its": 8931, "##tet": 8932, "seas": 8933, "leaf": 8934, "cheese": 8935, "endured": 8936, "##ory": 8937, "torque": 8938, "compliance": 8939, "carp": 8940, "##bis": 8941, "hearts": 8942, "cove": 8943, "##gu": 8944, "leopard": 8945, "delightful": 8946, "##hearted": 8947, "principle": 8948, "assigned": 8949, "nominal": 8950, "##ecure": 8951, "ash": 8952, "soul": 8953, "##bh": 8954, "album": 8955, "engraved": 8956, "assign": 8957, "nap": 8958, "isolation": 8959, "cramped": 8960, "counterparts": 8961, "radius": 8962, "captures": 8963, "##rim": 8964, "##rso": 8965, "##pur": 8966, "##fm": 8967, "surroundings": 8968, "km": 8969, "curled": 8970, "##ona": 8971, "rubbish": 8972, "115": 8973, "recipe": 8974, "ticking": 8975, "shortage": 8976, "mug": 8977, "lb": 8978, "##ancy": 8979, "##rta": 8980, "##ward": 8981, "sacrifices": 8982, "deluxe": 8983, "inventory": 8984, "announces": 8985, "##aro": 8986, "worldwide": 8987, "miracles": 8988, "chart": 8989, "thereafter": 8990, "pizza": 8991, "##aneous": 8992, "marred": 8993, "seeming": 8994, "##uni": 8995, "deco": 8996, "##actic": 8997, "##umble": 8998, "graph": 8999, "broadcast": 9000, "enjoyment": 9001, "leader": 9002, "professionals": 9003, "relied": 9004, "uncommon": 9005, "##lace": 9006, "complications": 9007, "illumination": 9008, "##cious": 9009, "linear": 9010, "artwork": 9011, "##sum": 9012, "varied": 9013, "inaccessible": 9014, "bolts": 9015, "##uh": 9016, "##ulously": 9017, "staple": 9018, "harmed": 9019, "##oj": 9020, "encouraged": 9021, "discourage": 9022, "##ino": 9023, "approval": 9024, "runners": 9025, "ventilation": 9026, "triggered": 9027, "rn": 9028, "slowing": 9029, "cello": 9030, "investments": 9031, "##ibility": 9032, "##lau": 9033, "spade": 9034, "automotive": 9035, "axis": 9036, "hiss": 9037, "spell": 9038, "invariably": 9039, "##rz": 9040, "translate": 9041, "drama": 9042, "basket": 9043, "communicating": 9044, "infinite": 9045, "fcc": 9046, "bows": 9047, "optimistic": 9048, "##sume": 9049, "html": 9050, "eng": 9051, "currency": 9052, "smashing": 9053, "##bell": 9054, "flashed": 9055, "##ggs": 9056, "ken": 9057, "ashamed": 9058, "counters": 9059, "retire": 9060, "segment": 9061, "astonishing": 9062, "dance": 9063, "appointment": 9064, "unsuccessful": 9065, "jp": 9066, "shares": 9067, "ranges": 9068, "##ivated": 9069, "hesitated": 9070, "dummy": 9071, "quarters": 9072, "listings": 9073, "380": 9074, "sensing": 9075, "launching": 9076, "reward": 9077, "litter": 9078, "##trip": 9079, "translation": 9080, "pains": 9081, "leans": 9082, "##duction": 9083, "21st": 9084, "hazardous": 9085, "##uy": 9086, "context": 9087, "##side": 9088, "swelled": 9089, "##sea": 9090, "stare": 9091, "stuffing": 9092, "sucking": 9093, "##gram": 9094, "avant": 9095, "philips": 9096, "##eis": 9097, "coded": 9098, "column": 9099, "independently": 9100, "##ulo": 9101, "favourite": 9102, "##gers": 9103, "prom": 9104, "lied": 9105, "revolution": 9106, "league": 9107, "##amina": 9108, "##agi": 9109, "##rger": 9110, "##lled": 9111, "streamed": 9112, "replies": 9113, "##bet": 9114, "##tain": 9115, "identifies": 9116, "characteristic": 9117, "resisting": 9118, "ist": 9119, "tanks": 9120, "##sk": 9121, "classes": 9122, "##nst": 9123, "##ith": 9124, "duel": 9125, "coarse": 9126, "exhaust": 9127, "premature": 9128, "demonstrate": 9129, "contender": 9130, "rude": 9131, "##atable": 9132, "taxes": 9133, "enemy": 9134, "laundry": 9135, "##ath": 9136, "##mini": 9137, "enlarged": 9138, "terrified": 9139, "##nish": 9140, "modifying": 9141, "eta": 9142, "exhausted": 9143, "##tation": 9144, "evidently": 9145, "justified": 9146, "##pressing": 9147, "slab": 9148, "platforms": 9149, "sweater": 9150, "scattered": 9151, "chicken": 9152, "pamphlet": 9153, "wiggled": 9154, "##zd": 9155, "sponsored": 9156, "2004": 9157, "unreasonable": 9158, "postal": 9159, "upstairs": 9160, "radiation": 9161, "##wood": 9162, "##wash": 9163, "accompany": 9164, "##rot": 9165, "startup": 9166, "##has": 9167, "trump": 9168, "colleague": 9169, "thoughtfully": 9170, "##yd": 9171, "##gent": 9172, "rails": 9173, "hatch": 9174, "##nable": 9175, "dining": 9176, "##year": 9177, "unto": 9178, "comforting": 9179, "exquisite": 9180, "grandfather": 9181, "shortest": 9182, "fridge": 9183, "##rdy": 9184, "##thest": 9185, "guts": 9186, "exaggerated": 9187, "##bate": 9188, "appointments": 9189, "710": 9190, "dialed": 9191, "thereof": 9192, "relay": 9193, "cough": 9194, "framing": 9195, "cooper": 9196, "splinter": 9197, "##pot": 9198, "patio": 9199, "airline": 9200, "comparatively": 9201, "##ense": 9202, "perpendicular": 9203, "concealed": 9204, "bon": 9205, "whites": 9206, "##dry": 9207, "##xing": 9208, "550": 9209, "##df": 9210, "##ingly": 9211, "##lty": 9212, "creep": 9213, "hardy": 9214, "devil": 9215, "rage": 9216, "subdued": 9217, "vita": 9218, "##tick": 9219, "ff": 9220, "stressed": 9221, "shaved": 9222, "##tee": 9223, "equals": 9224, "atmosphere": 9225, "benson": 9226, "representation": 9227, "excellence": 9228, "focal": 9229, "##ulation": 9230, "merits": 9231, "sums": 9232, "patent": 9233, "roam": 9234, "nickel": 9235, "trailer": 9236, "crossing": 9237, "vista": 9238, "confirms": 9239, "##igh": 9240, "##lier": 9241, "feasible": 9242, "deployed": 9243, "storms": 9244, "##kh": 9245, "cartoon": 9246, "blaming": 9247, "dilemma": 9248, "cruiser": 9249, "##very": 9250, "hay": 9251, "temperament": 9252, "beg": 9253, "##ros": 9254, "taught": 9255, "abandoned": 9256, "cop": 9257, "jury": 9258, "tradition": 9259, "##dit": 9260, "wrinkled": 9261, "yoga": 9262, "##ncies": 9263, "##gf": 9264, "##eu": 9265, "falsely": 9266, "robot": 9267, "tis": 9268, "palms": 9269, "##hee": 9270, "##fur": 9271, "##usly": 9272, "310": 9273, "topic": 9274, "##lev": 9275, "competent": 9276, "sought": 9277, "auction": 9278, "amplified": 9279, "175": 9280, "toll": 9281, "og": 9282, "panorama": 9283, "var": 9284, "##founded": 9285, "excursion": 9286, "##ttering": 9287, "##tters": 9288, "spreading": 9289, "gender": 9290, "projected": 9291, "racing": 9292, "rode": 9293, "soccer": 9294, "##ying": 9295, "##uri": 9296, "chunks": 9297, "collapses": 9298, "poked": 9299, "darkened": 9300, "reddish": 9301, "dei": 9302, "german": 9303, "pools": 9304, "combat": 9305, "chores": 9306, "cease": 9307, "stunned": 9308, "##ores": 9309, "casually": 9310, "##fish": 9311, "##nal": 9312, "##dis": 9313, "dd": 9314, "##ike": 9315, "copies": 9316, "##zzle": 9317, "##joy": 9318, "succeed": 9319, "##nent": 9320, "##rad": 9321, "##sur": 9322, "##ris": 9323, "entertained": 9324, "neighbors": 9325, "cured": 9326, "zoo": 9327, "##ult": 9328, "##sible": 9329, "fronts": 9330, "##oi": 9331, "##pace": 9332, "##bre": 9333, "tripped": 9334, "detecting": 9335, "prevention": 9336, "##ffe": 9337, "interim": 9338, "nighttime": 9339, "involve": 9340, "deteriorated": 9341, "##ffed": 9342, "linux": 9343, "ported": 9344, "quietly": 9345, "##tort": 9346, "toe": 9347, "southern": 9348, "jersey": 9349, "##via": 9350, "##hat": 9351, "breathing": 9352, "amazement": 9353, "french": 9354, "##tte": 9355, "##edes": 9356, "deny": 9357, "crawl": 9358, "##vio": 9359, "lieu": 9360, "##ind": 9361, "ang": 9362, "phantom": 9363, "relaxing": 9364, "illustrations": 9365, "recycled": 9366, "105": 9367, "##sse": 9368, "pearls": 9369, "millions": 9370, "##gled": 9371, "##lian": 9372, "disgusted": 9373, "persistent": 9374, "affair": 9375, "greenish": 9376, "##gil": 9377, "##iii": 9378, "artificial": 9379, "ranks": 9380, "drastic": 9381, "depression": 9382, "##oma": 9383, "accompanied": 9384, "calm": 9385, "comply": 9386, "risks": 9387, "leary": 9388, "afforded": 9389, "sensible": 9390, "consolidate": 9391, "pipe": 9392, "concluded": 9393, "dug": 9394, "endurance": 9395, "nic": 9396, "pour": 9397, "##ply": 9398, "drown": 9399, "fling": 9400, "raft": 9401, "spelling": 9402, "hilarious": 9403, "webb": 9404, "logged": 9405, "penetrate": 9406, "experimented": 9407, "confirming": 9408, "examination": 9409, "attire": 9410, "odyssey": 9411, "ping": 9412, "cad": 9413, "implied": 9414, "##pes": 9415, "##ride": 9416, "conclusions": 9417, "teacher": 9418, "arrange": 9419, "##room": 9420, "tailored": 9421, "breed": 9422, "##nz": 9423, "replicate": 9424, "soaking": 9425, "mainstream": 9426, "arsenal": 9427, "elect": 9428, "infinity": 9429, "detailing": 9430, "##ush": 9431, "possession": 9432, "kernel": 9433, "shadows": 9434, "##aj": 9435, "destructive": 9436, "interstate": 9437, "infrared": 9438, "crushing": 9439, "##uation": 9440, "splendid": 9441, "##ange": 9442, "tractor": 9443, "bizarre": 9444, "beer": 9445, "##dle": 9446, "adobe": 9447, "##md": 9448, "dragged": 9449, "miniature": 9450, "m1": 9451, "nc": 9452, "hints": 9453, "skiing": 9454, "alternating": 9455, "##cap": 9456, "steve": 9457, "finely": 9458, "demonstrated": 9459, "leash": 9460, "##dl": 9461, "lateral": 9462, "soil": 9463, "##ners": 9464, "vault": 9465, "##pel": 9466, "drinking": 9467, "thermal": 9468, "counted": 9469, "##iste": 9470, "##ament": 9471, "duck": 9472, "installment": 9473, "debate": 9474, "ensured": 9475, "scanned": 9476, "##tracted": 9477, "canned": 9478, "amor": 9479, "kicker": 9480, "acquiring": 9481, "vanilla": 9482, "shady": 9483, "finer": 9484, "boosted": 9485, "judgment": 9486, "intervals": 9487, "330": 9488, "networking": 9489, "mum": 9490, "bible": 9491, "##bound": 9492, "amber": 9493, "batman": 9494, "costa": 9495, "miscellaneous": 9496, "##ret": 9497, "insult": 9498, "confess": 9499, "employed": 9500, "mercedes": 9501, "funds": 9502, "piss": 9503, "jail": 9504, "freaked": 9505, "england": 9506, "##hir": 9507, "skate": 9508, "##itate": 9509, "warren": 9510, "##ways": 9511, "italian": 9512, "ava": 9513, "foe": 9514, "##yle": 9515, "factual": 9516, "essence": 9517, "ninja": 9518, "sas": 9519, "##made": 9520, "stein": 9521, "reasoning": 9522, "divided": 9523, "owl": 9524, "##tera": 9525, "##ral": 9526, "earl": 9527, "entries": 9528, "monkey": 9529, "poses": 9530, "labelled": 9531, "wars": 9532, "trained": 9533, "shoving": 9534, "belly": 9535, "addressing": 9536, "mn": 9537, "outlined": 9538, "emphasis": 9539, "aircraft": 9540, "revolutionary": 9541, "bore": 9542, "hk": 9543, "rushing": 9544, "deploy": 9545, "insignificant": 9546, "yanking": 9547, "##shing": 9548, "hazards": 9549, "specialty": 9550, "routes": 9551, "enters": 9552, "vest": 9553, "joe": 9554, "##ically": 9555, "pep": 9556, "plush": 9557, "##dad": 9558, "##lz": 9559, "thieves": 9560, "observe": 9561, "allen": 9562, "sixth": 9563, "fox": 9564, "boards": 9565, "sailing": 9566, "##hem": 9567, "dough": 9568, "##illa": 9569, "trapping": 9570, "tiffany": 9571, "rained": 9572, "chassis": 9573, "vanity": 9574, "knot": 9575, "1865": 9576, "superficial": 9577, "carr": 9578, "merge": 9579, "inflated": 9580, "##gel": 9581, "anger": 9582, "yield": 9583, "##iously": 9584, "##uce": 9585, "prohibit": 9586, "career": 9587, "belongings": 9588, "convincing": 9589, "swore": 9590, "##ista": 9591, "joking": 9592, "adopted": 9593, "climb": 9594, "perceived": 9595, "milk": 9596, "kb": 9597, "2003": 9598, "ike": 9599, "crippled": 9600, "brass": 9601, "proudly": 9602, "plague": 9603, "charms": 9604, "miserable": 9605, "thor": 9606, "evaluated": 9607, "valued": 9608, "##ttered": 9609, "##cz": 9610, "dee": 9611, "grant": 9612, "questioning": 9613, "hen": 9614, "strategically": 9615, "##tam": 9616, "complementary": 9617, "modular": 9618, "weapon": 9619, "restrictive": 9620, "classroom": 9621, "##zle": 9622, "##tics": 9623, "colorado": 9624, "##ining": 9625, "discussion": 9626, "yanked": 9627, "literature": 9628, "##ita": 9629, "servers": 9630, "establish": 9631, "mice": 9632, "##wat": 9633, "tc": 9634, "wrestling": 9635, "##ala": 9636, "salvage": 9637, "guilty": 9638, "attend": 9639, "eli": 9640, "ubiquitous": 9641, "idiots": 9642, "intentions": 9643, "##hip": 9644, "##ection": 9645, "contribute": 9646, "existence": 9647, "angel": 9648, "##ptic": 9649, "predicted": 9650, "borrowing": 9651, "upscale": 9652, "unchanged": 9653, "slacks": 9654, "transitions": 9655, "coco": 9656, "##oto": 9657, "drinks": 9658, "writes": 9659, "defeated": 9660, "forty": 9661, "mirrors": 9662, "panda": 9663, "groves": 9664, "##taking": 9665, "fluorescent": 9666, "decreasing": 9667, "crunch": 9668, "stroll": 9669, "ari": 9670, "aperture": 9671, "cane": 9672, "1920": 9673, "verses": 9674, "gran": 9675, "nurse": 9676, "canoe": 9677, "transmitted": 9678, "##tten": 9679, "softly": 9680, "sb": 9681, "contributed": 9682, "laughed": 9683, "centers": 9684, "129": 9685, "credited": 9686, "rca": 9687, "wicked": 9688, "##adi": 9689, "##rod": 9690, "hugely": 9691, "interrupted": 9692, "hall": 9693, "##aq": 9694, "rite": 9695, "craig": 9696, "atop": 9697, "tugged": 9698, "##iculate": 9699, "retracted": 9700, "testament": 9701, "soda": 9702, "dept": 9703, "##inated": 9704, "##dome": 9705, "alternatively": 9706, "wen": 9707, "##abi": 9708, "##ifying": 9709, "involving": 9710, "disappearing": 9711, "nerves": 9712, "publication": 9713, "calculate": 9714, "curse": 9715, "incorporates": 9716, "##lter": 9717, "##ations": 9718, "cores": 9719, "spirit": 9720, "irregular": 9721, "blasting": 9722, "throttle": 9723, "lowers": 9724, "entertaining": 9725, "eleven": 9726, "expects": 9727, "implement": 9728, "strengths": 9729, "spontaneously": 9730, "reluctantly": 9731, "sock": 9732, "nonstop": 9733, "rang": 9734, "##cation": 9735, "flexed": 9736, "blogger": 9737, "##oun": 9738, "backyard": 9739, "##tated": 9740, "dotted": 9741, "##factory": 9742, "##cio": 9743, "discussed": 9744, "rash": 9745, "##git": 9746, "##aging": 9747, "drunk": 9748, "##cking": 9749, "ter": 9750, "silvery": 9751, "demise": 9752, "##chi": 9753, "tickets": 9754, "excluding": 9755, "smoky": 9756, "bragg": 9757, "hats": 9758, "apparatus": 9759, "examining": 9760, "pray": 9761, "ragged": 9762, "commit": 9763, "affiliate": 9764, "##eta": 9765, "mrs": 9766, "soc": 9767, "##nb": 9768, "apology": 9769, "persuaded": 9770, "idol": 9771, "collapsed": 9772, "succeeded": 9773, "##mana": 9774, "hose": 9775, "scuba": 9776, "washington": 9777, "criticisms": 9778, "lest": 9779, "flea": 9780, "sara": 9781, "mk": 9782, "environmental": 9783, "santa": 9784, "ongoing": 9785, "##ards": 9786, "infamous": 9787, "enthusiastic": 9788, "attitude": 9789, "nah": 9790, "##ired": 9791, "mer": 9792, "humming": 9793, "refers": 9794, "1100": 9795, "digits": 9796, "routed": 9797, "arrows": 9798, "deliberate": 9799, "##posed": 9800, "balcony": 9801, "anticipating": 9802, "stomach": 9803, "facial": 9804, "##stan": 9805, "##tate": 9806, "cage": 9807, "born": 9808, "unnoticed": 9809, "tal": 9810, "bingo": 9811, "##crow": 9812, "authenticity": 9813, "curling": 9814, "knees": 9815, "breast": 9816, "precautions": 9817, "##cope": 9818, "##tur": 9819, "##rai": 9820, "fearing": 9821, "milky": 9822, "comprised": 9823, "ian": 9824, "##gut": 9825, "revive": 9826, "quilt": 9827, "analyze": 9828, "##vron": 9829, "##zation": 9830, "2002": 9831, "coach": 9832, "acknowledged": 9833, "stripping": 9834, "mysteriously": 9835, "workplace": 9836, "copying": 9837, "fields": 9838, "instruments": 9839, "##nto": 9840, "spilling": 9841, "20th": 9842, "averaging": 9843, "##oin": 9844, "##uel": 9845, "lick": 9846, "##poo": 9847, "geo": 9848, "##wed": 9849, "circumstance": 9850, "##ivo": 9851, "##ieving": 9852, "dh": 9853, "indefinitely": 9854, "tun": 9855, "lace": 9856, "photon": 9857, "##ital": 9858, "phrase": 9859, "ignoring": 9860, "ami": 9861, "valentine": 9862, "##gar": 9863, "##heard": 9864, "distributed": 9865, "##bridge": 9866, "shooter": 9867, "tribute": 9868, "scenery": 9869, "sizable": 9870, "##owa": 9871, "rounding": 9872, "counterpart": 9873, "phi": 9874, "injection": 9875, "##plex": 9876, "thy": 9877, "##400": 9878, "##oro": 9879, "passive": 9880, "##ffin": 9881, "knives": 9882, "verbal": 9883, "##chs": 9884, "freshly": 9885, "differs": 9886, "simulate": 9887, "pouring": 9888, "depot": 9889, "petty": 9890, "##tin": 9891, "concentrate": 9892, "associate": 9893, "partition": 9894, "routing": 9895, "tide": 9896, "stall": 9897, "suns": 9898, "assisted": 9899, "sham": 9900, "##eer": 9901, "angular": 9902, "##rid": 9903, "akin": 9904, "##had": 9905, "dubious": 9906, "symmetrical": 9907, "safeguard": 9908, "##ada": 9909, "hampered": 9910, "chan": 9911, "arc": 9912, "##lun": 9913, "##mpt": 9914, "atv": 9915, "flung": 9916, "author": 9917, "banking": 9918, "wheels": 9919, "mei": 9920, "hugging": 9921, "reacts": 9922, "##gni": 9923, "##boarding": 9924, "votes": 9925, "##ines": 9926, "##nx": 9927, "galaxies": 9928, "national": 9929, "flavor": 9930, "wilson": 9931, "imported": 9932, "awareness": 9933, "##rting": 9934, "supervisor": 9935, "facility": 9936, "##hini": 9937, "award": 9938, "##dh": 9939, "begging": 9940, "dismiss": 9941, "##drop": 9942, "contest": 9943, "overwhelmed": 9944, "softened": 9945, "eu": 9946, "##copic": 9947, "airplanes": 9948, "##pet": 9949, "yell": 9950, "recycling": 9951, "cousins": 9952, "perception": 9953, "universe": 9954, "virus": 9955, "##tto": 9956, "knox": 9957, "uncertain": 9958, "preserving": 9959, "trials": 9960, "sip": 9961, "caliber": 9962, "overboard": 9963, "blogs": 9964, "spotted": 9965, "##face": 9966, "reused": 9967, "picnic": 9968, "proposition": 9969, "butterflies": 9970, "poster": 9971, "ignition": 9972, "cb": 9973, "cyber": 9974, "married": 9975, "educated": 9976, "consequence": 9977, "currents": 9978, "##dor": 9979, "##fly": 9980, "##litz": 9981, "##mit": 9982, "uneasy": 9983, "shark": 9984, "verge": 9985, "policies": 9986, "rica": 9987, "##block": 9988, "universally": 9989, "##tail": 9990, "invalid": 9991, "desires": 9992, "wc": 9993, "phoenix": 9994, "##balance": 9995, "happiness": 9996, "heap": 9997, "immersion": 9998, "snatch": 9999, "appliances": 10000, "##land": 10001, "immersed": 10002, "##kie": 10003, "newt": 10004, "aero": 10005, "coincidence": 10006, "mattered": 10007, "rocky": 10008, "inquiries": 10009, "##cule": 10010, "artifacts": 10011, "preparing": 10012, "gaining": 10013, "bears": 10014, "##izes": 10015, "behalf": 10016, "elevation": 10017, "utmost": 10018, "procedures": 10019, "miami": 10020, "##ucher": 10021, "titan": 10022, "stages": 10023, "##gun": 10024, "explicitly": 10025, "##owed": 10026, "clap": 10027, "tacoma": 10028, "365": 10029, "ban": 10030, "conditioned": 10031, "tying": 10032, "refrigerator": 10033, "blues": 10034, "##ending": 10035, "##oke": 10036, "considerations": 10037, "compelling": 10038, "dipped": 10039, "magazine": 10040, "##wall": 10041, "paused": 10042, "jackets": 10043, "thrill": 10044, "930": 10045, "cds": 10046, "liberal": 10047, "rr": 10048, "##den": 10049, "dumping": 10050, "wii": 10051, "aces": 10052, "trough": 10053, "bk": 10054, "assumes": 10055, "survival": 10056, "wilderness": 10057, "generates": 10058, "hm": 10059, "crying": 10060, "accommodated": 10061, "investigate": 10062, "excuses": 10063, "guiding": 10064, "mornings": 10065, "##ula": 10066, "uc": 10067, "jolt": 10068, "reflex": 10069, "demonstration": 10070, "1400": 10071, "exploded": 10072, "rising": 10073, "philippines": 10074, "commenting": 10075, "cradled": 10076, "screened": 10077, "bunny": 10078, "portal": 10079, "insists": 10080, "wah": 10081, "signing": 10082, "approaching": 10083, "identifying": 10084, "##win": 10085, "popularity": 10086, "##pac": 10087, "thanksgiving": 10088, "rein": 10089, "qualified": 10090, "chains": 10091, "pioneer": 10092, "unrelated": 10093, "capsule": 10094, "motions": 10095, "minds": 10096, "claws": 10097, "blackout": 10098, "slept": 10099, "##pling": 10100, "##vir": 10101, "mc": 10102, "aiming": 10103, "##lee": 10104, "bacon": 10105, "rink": 10106, "107": 10107, "maroon": 10108, "##rca": 10109, "thanking": 10110, "vigorous": 10111, "businesses": 10112, "prevalent": 10113, "foul": 10114, "##wil": 10115, "##unds": 10116, "pausing": 10117, "graduation": 10118, "correction": 10119, "smoking": 10120, "territory": 10121, "##ished": 10122, "noteworthy": 10123, "##odle": 10124, "appeals": 10125, "miraculous": 10126, "##cave": 10127, "##tty": 10128, "##ety": 10129, "sammy": 10130, "reserved": 10131, "exited": 10132, "lord": 10133, "leaps": 10134, "##ists": 10135, "##ishly": 10136, "mastered": 10137, "announcement": 10138, "sorted": 10139, "##name": 10140, "##force": 10141, "##ume": 10142, "resemble": 10143, "guided": 10144, "objection": 10145, "9th": 10146, "frail": 10147, "##color": 10148, "jett": 10149, "vp": 10150, "footage": 10151, "relaxed": 10152, "##ame": 10153, "weaknesses": 10154, "coding": 10155, "mental": 10156, "##hoe": 10157, "formats": 10158, "meaningful": 10159, "##pled": 10160, "antique": 10161, "realm": 10162, "410": 10163, "swiss": 10164, "saddle": 10165, "questioned": 10166, "cary": 10167, "curving": 10168, "computing": 10169, "weakened": 10170, "##quin": 10171, "##yk": 10172, "145": 10173, "##dling": 10174, "dissatisfaction": 10175, "##tically": 10176, "queen": 10177, "develops": 10178, "descriptive": 10179, "##tiv": 10180, "trauma": 10181, "inspired": 10182, "nod": 10183, "progresses": 10184, "artistic": 10185, "##itt": 10186, "##rly": 10187, "wander": 10188, "##ckle": 10189, "pods": 10190, "##nie": 10191, "##tus": 10192, "centimeters": 10193, "cooled": 10194, "discs": 10195, "unseen": 10196, "##rop": 10197, "listener": 10198, "stupidity": 10199, "adi": 10200, "bitch": 10201, "albums": 10202, "forcefully": 10203, "damned": 10204, "##ility": 10205, "##uti": 10206, "##fall": 10207, "cheerful": 10208, "mixing": 10209, "##world": 10210, "alaska": 10211, "completing": 10212, "##arat": 10213, "permits": 10214, "camouflage": 10215, "commercials": 10216, "cigar": 10217, "cigarettes": 10218, "##yst": 10219, "##entes": 10220, "sal": 10221, "##pit": 10222, "deadline": 10223, "exercises": 10224, "astonished": 10225, "interactive": 10226, "appreciation": 10227, "tenth": 10228, "##cure": 10229, "sharply": 10230, "warns": 10231, "vin": 10232, "##rating": 10233, "grasping": 10234, "##aga": 10235, "clouds": 10236, "ramp": 10237, "##zh": 10238, "fumbled": 10239, "dimensional": 10240, "##lets": 10241, "nude": 10242, "##ius": 10243, "##bon": 10244, "##olt": 10245, "focuses": 10246, "scares": 10247, "blindly": 10248, "blanket": 10249, "##mis": 10250, "meg": 10251, "610": 10252, "##meric": 10253, "dressing": 10254, "candle": 10255, "rested": 10256, "kensington": 10257, "dj": 10258, "puzzled": 10259, "exchanges": 10260, "warmth": 10261, "imaging": 10262, "##eving": 10263, "##rity": 10264, "pac": 10265, "170": 10266, "france": 10267, "cheer": 10268, "loan": 10269, "##nified": 10270, "transmitters": 10271, "firing": 10272, "##amo": 10273, "envoy": 10274, "##rine": 10275, "telescope": 10276, "##tray": 10277, "glorious": 10278, "sunset": 10279, "##ately": 10280, "ordeal": 10281, "##cript": 10282, "##with": 10283, "oder": 10284, "scope": 10285, "billed": 10286, "valley": 10287, "shore": 10288, "greeted": 10289, "certainty": 10290, "waters": 10291, "drilling": 10292, "299": 10293, "beds": 10294, "##hak": 10295, "determining": 10296, "knicks": 10297, "coordinated": 10298, "athletic": 10299, "##sal": 10300, "##dding": 10301, "interacting": 10302, "hauling": 10303, "biker": 10304, "carved": 10305, "childish": 10306, "grows": 10307, "decorations": 10308, "females": 10309, "initiated": 10310, "uniquely": 10311, "employer": 10312, "flows": 10313, "##pour": 10314, "hire": 10315, "necklace": 10316, "sanity": 10317, "aj": 10318, "##ctic": 10319, "anchored": 10320, "horrific": 10321, "organizing": 10322, "dangerously": 10323, "mechanically": 10324, "linking": 10325, "contributes": 10326, "eventual": 10327, "wed": 10328, "indications": 10329, "gains": 10330, "15th": 10331, "##nsed": 10332, "moral": 10333, "steamed": 10334, "sparse": 10335, "eighth": 10336, "##rag": 10337, "fraud": 10338, "mustang": 10339, "vet": 10340, "nike": 10341, "##pol": 10342, "gliding": 10343, "sack": 10344, "verse": 10345, "swiped": 10346, "##earing": 10347, "pow": 10348, "alien": 10349, "sour": 10350, "abe": 10351, "##sper": 10352, "airs": 10353, "##tis": 10354, "sparkling": 10355, "outlines": 10356, "boarding": 10357, "savior": 10358, "flesh": 10359, "##nier": 10360, "compression": 10361, "##rize": 10362, "##zone": 10363, "praises": 10364, "##ena": 10365, "ridden": 10366, "##lous": 10367, "treating": 10368, "pleas": 10369, "provision": 10370, "##craft": 10371, "curls": 10372, "solving": 10373, "##fia": 10374, "animated": 10375, "practices": 10376, "esq": 10377, "strategy": 10378, "sedan": 10379, "heel": 10380, "##ues": 10381, "downloadable": 10382, "northern": 10383, "##aker": 10384, "intimidated": 10385, "cheat": 10386, "##ows": 10387, "renew": 10388, "##esa": 10389, "##overs": 10390, "catastrophic": 10391, "gag": 10392, "fig": 10393, "settles": 10394, "##urized": 10395, "dripping": 10396, "##chang": 10397, "portraits": 10398, "canceled": 10399, "thump": 10400, "hating": 10401, "drone": 10402, "##hri": 10403, "retrieval": 10404, "spit": 10405, "##osed": 10406, "wrecked": 10407, "flattened": 10408, "suspension": 10409, "##bal": 10410, "religious": 10411, "gathers": 10412, "favorably": 10413, "inquiry": 10414, "##mable": 10415, "paddle": 10416, "panicked": 10417, "##neo": 10418, "government": 10419, "deaf": 10420, "wildly": 10421, "remorse": 10422, "cosmos": 10423, "motorcycles": 10424, "cancer": 10425, "##llo": 10426, "trades": 10427, "##uta": 10428, "crawling": 10429, "licking": 10430, "hopping": 10431, "##eran": 10432, "billing": 10433, "enhancing": 10434, "##ries": 10435, "##lining": 10436, "11th": 10437, "hissing": 10438, "##flict": 10439, "eggs": 10440, "revived": 10441, "pip": 10442, "rejected": 10443, "##osi": 10444, "pak": 10445, "##azi": 10446, "142": 10447, "parameters": 10448, "##eit": 10449, "##del": 10450, "cans": 10451, "skilled": 10452, "retrieved": 10453, "aggressively": 10454, "##pee": 10455, "lone": 10456, "shear": 10457, "##ont": 10458, "##ij": 10459, "fractures": 10460, "##elling": 10461, "rogue": 10462, "nfl": 10463, "recalled": 10464, "smacked": 10465, "lp": 10466, "luc": 10467, "##hesis": 10468, "owls": 10469, "resolving": 10470, "depicts": 10471, "disperse": 10472, "mercury": 10473, "influences": 10474, "wavelength": 10475, "bounds": 10476, "pacific": 10477, "##runner": 10478, "yards": 10479, "evolution": 10480, "disposal": 10481, "drowned": 10482, "wisdom": 10483, "chooses": 10484, "hips": 10485, "intro": 10486, "cobalt": 10487, "910": 10488, "recordings": 10489, "##tton": 10490, "attending": 10491, "defeating": 10492, "addiction": 10493, "brushing": 10494, "101": 10495, "cue": 10496, "conspicuous": 10497, "completes": 10498, "origin": 10499, "audience": 10500, "illustrate": 10501, "luna": 10502, "##ouse": 10503, "neglected": 10504, "launches": 10505, "cherokee": 10506, "dominican": 10507, "differing": 10508, "machinery": 10509, "gathered": 10510, "alphabet": 10511, "texted": 10512, "cookie": 10513, "fen": 10514, "##hon": 10515, "##buck": 10516, "##bus": 10517, "##ump": 10518, "allotted": 10519, "##osh": 10520, "135": 10521, "##rse": 10522, "knit": 10523, "muscular": 10524, "drenched": 10525, "paris": 10526, "##hold": 10527, "seattle": 10528, "##culus": 10529, "tucking": 10530, "downtown": 10531, "ct": 10532, "##wheel": 10533, "comical": 10534, "##tos": 10535, "strokes": 10536, "##pies": 10537, "##vision": 10538, "booth": 10539, "dod": 10540, "convention": 10541, "##tag": 10542, "evenings": 10543, "##fen": 10544, "sprung": 10545, "stat": 10546, "capital": 10547, "##rce": 10548, "abandon": 10549, "bonuses": 10550, "dreadful": 10551, "indifferent": 10552, "##edo": 10553, "##erry": 10554, "francisco": 10555, "suspended": 10556, "rows": 10557, "visuals": 10558, "abundance": 10559, "consequences": 10560, "##uth": 10561, "##oso": 10562, "seasons": 10563, "dealers": 10564, "##heart": 10565, "amusing": 10566, "boon": 10567, "progressively": 10568, "thigh": 10569, "maxim": 10570, "sunk": 10571, "breakfast": 10572, "chasing": 10573, "victim": 10574, "##ees": 10575, "##ils": 10576, "apologies": 10577, "##ene": 10578, "boil": 10579, "fools": 10580, "##lov": 10581, "aba": 10582, "certificate": 10583, "##rba": 10584, "##cin": 10585, "patients": 10586, "##tree": 10587, "##tering": 10588, "laughing": 10589, "violet": 10590, "mats": 10591, "##urance": 10592, "##tream": 10593, "780": 10594, "fights": 10595, "agreeing": 10596, "ipa": 10597, "marine": 10598, "##bird": 10599, "cubic": 10600, "lamps": 10601, "##quest": 10602, "##zine": 10603, "grounded": 10604, "fabrics": 10605, "pup": 10606, "sentences": 10607, "##ars": 10608, "##cit": 10609, "ache": 10610, "coma": 10611, "##vac": 10612, "##mmy": 10613, "transporting": 10614, "##hos": 10615, "gram": 10616, "squat": 10617, "obe": 10618, "continual": 10619, "enterprise": 10620, "##storm": 10621, "##dict": 10622, "grille": 10623, "2001": 10624, "sienna": 10625, "pumps": 10626, "##ichi": 10627, "probable": 10628, "entertain": 10629, "attributed": 10630, "##ios": 10631, "##cter": 10632, "numbered": 10633, "##ssing": 10634, "fulfillment": 10635, "##sity": 10636, "hulk": 10637, "ticked": 10638, "operators": 10639, "repetitive": 10640, "trademark": 10641, "triangular": 10642, "wells": 10643, "prominently": 10644, "540": 10645, "andy": 10646, "mechanics": 10647, "nuclear": 10648, "supporter": 10649, "burr": 10650, "warming": 10651, "gardening": 10652, "fathers": 10653, "##tling": 10654, "ranking": 10655, "easter": 10656, "carpenter": 10657, "bodies": 10658, "##dre": 10659, "##oton": 10660, "1560": 10661, "encompasses": 10662, "##lized": 10663, "ivo": 10664, "affinity": 10665, "transforms": 10666, "meal": 10667, "antennae": 10668, "vocal": 10669, "staples": 10670, "poorer": 10671, "##ste": 10672, "illustration": 10673, "isolate": 10674, "parrot": 10675, "deployment": 10676, "creeping": 10677, "dragon": 10678, "offensive": 10679, "dictionary": 10680, "poles": 10681, "economic": 10682, "##lift": 10683, "momentarily": 10684, "writer": 10685, "##metric": 10686, "hills": 10687, "billion": 10688, "ranked": 10689, "wand": 10690, "chairs": 10691, "##aran": 10692, "worship": 10693, "victory": 10694, "promoted": 10695, "incurred": 10696, "##dust": 10697, "termination": 10698, "##fine": 10699, "averaged": 10700, "deemed": 10701, "##ific": 10702, "null": 10703, "citizen": 10704, "##rous": 10705, "boxing": 10706, "elliptical": 10707, "##ously": 10708, "whoa": 10709, "##kas": 10710, "tracked": 10711, "24th": 10712, "sting": 10713, "pounding": 10714, "clinging": 10715, "stove": 10716, "accumulation": 10717, "inherently": 10718, "##used": 10719, "prism": 10720, "143": 10721, "festival": 10722, "##iel": 10723, "unbroken": 10724, "scenes": 10725, "contemporary": 10726, "wholly": 10727, "gus": 10728, "musical": 10729, "##iga": 10730, "vapor": 10731, "formerly": 10732, "##ator": 10733, "fundamental": 10734, "broadband": 10735, "##ually": 10736, "802": 10737, "referenced": 10738, "drift": 10739, "liv": 10740, "cooperate": 10741, "smith": 10742, "##body": 10743, "straining": 10744, "discouraged": 10745, "##gat": 10746, "suburban": 10747, "cv": 10748, "adherence": 10749, "estimation": 10750, "unfolded": 10751, "kiss": 10752, "insignia": 10753, "sibling": 10754, "cater": 10755, "nee": 10756, "plainly": 10757, "brit": 10758, "##ej": 10759, "##erted": 10760, "##osphere": 10761, "competes": 10762, "alley": 10763, "##ture": 10764, "tau": 10765, "granite": 10766, "similarities": 10767, "13th": 10768, "proceeding": 10769, "mons": 10770, "suspend": 10771, "robin": 10772, "##ade": 10773, "drug": 10774, "consumed": 10775, "dizzy": 10776, "##clops": 10777, "decorated": 10778, "dissipated": 10779, "##tile": 10780, "slamming": 10781, "fractured": 10782, "##using": 10783, "reactions": 10784, "##eased": 10785, "illustrated": 10786, "dancing": 10787, "##tine": 10788, "dire": 10789, "530": 10790, "fuller": 10791, "classical": 10792, "externally": 10793, "enthusiasts": 10794, "chronic": 10795, "##mad": 10796, "horizon": 10797, "ether": 10798, "##bro": 10799, "australia": 10800, "mia": 10801, "echoing": 10802, "probability": 10803, "##ema": 10804, "filtering": 10805, "##person": 10806, "stacks": 10807, "attic": 10808, "ow": 10809, "visits": 10810, "fought": 10811, "strait": 10812, "123": 10813, "##iciencies": 10814, "340": 10815, "##shot": 10816, "##sco": 10817, "willingness": 10818, "tn": 10819, "angeles": 10820, "highlighted": 10821, "##ode": 10822, "##uity": 10823, "commando": 10824, "api": 10825, "112": 10826, "predecessors": 10827, "##cke": 10828, "conducted": 10829, "widespread": 10830, "##rates": 10831, "dimly": 10832, "00pm": 10833, "smelling": 10834, "sights": 10835, "##ooping": 10836, "techniques": 10837, "tempting": 10838, "viewers": 10839, "believes": 10840, "exploding": 10841, "inflicted": 10842, "##due": 10843, "appearances": 10844, "##nging": 10845, "deteriorating": 10846, "##hard": 10847, "arguing": 10848, "demonstrates": 10849, "invincible": 10850, "##nies": 10851, "photographers": 10852, "##ilo": 10853, "bowing": 10854, "motivated": 10855, "walker": 10856, "##lation": 10857, "cuff": 10858, "woken": 10859, "themed": 10860, "microscope": 10861, "eternity": 10862, "madden": 10863, "framed": 10864, "touring": 10865, "##owing": 10866, "der": 10867, "##sch": 10868, "80s": 10869, "ruler": 10870, "studying": 10871, "graphical": 10872, "##tua": 10873, "imply": 10874, "dispose": 10875, "##esh": 10876, "##torm": 10877, "gin": 10878, "scent": 10879, "dinosaur": 10880, "approached": 10881, "header": 10882, "unnatural": 10883, "tongue": 10884, "spain": 10885, "erased": 10886, "carl": 10887, "liberty": 10888, "swiftly": 10889, "satellites": 10890, "spun": 10891, "syndrome": 10892, "##uming": 10893, "bonding": 10894, "##rov": 10895, "limb": 10896, "jim": 10897, "restroom": 10898, "correspond": 10899, "harmful": 10900, "depths": 10901, "fixture": 10902, "darling": 10903, "chamber": 10904, "coe": 10905, "corrosion": 10906, "abd": 10907, "intimidating": 10908, "plants": 10909, "comparative": 10910, "puzzle": 10911, "##tens": 10912, "jungle": 10913, "blended": 10914, "eaten": 10915, "embrace": 10916, "masses": 10917, "##uj": 10918, "occupy": 10919, "afi": 10920, "summers": 10921, "grandpa": 10922, "trooper": 10923, "intriguing": 10924, "expansive": 10925, "baked": 10926, "thirds": 10927, "18th": 10928, "snatched": 10929, "remark": 10930, "contend": 10931, "muscles": 10932, "##rable": 10933, "pony": 10934, "##sman": 10935, "formula": 10936, "vc": 10937, "nj": 10938, "packets": 10939, "proportion": 10940, "bites": 10941, "directs": 10942, "paramount": 10943, "rob": 10944, "daddy": 10945, "numb": 10946, "fringe": 10947, "##lls": 10948, "##aring": 10949, "tens": 10950, "creation": 10951, "safari": 10952, "manipulating": 10953, "remembers": 10954, "michael": 10955, "reproduce": 10956, "forehead": 10957, "30th": 10958, "vigorously": 10959, "bp": 10960, "arose": 10961, "marriage": 10962, "elected": 10963, "##bbies": 10964, "brute": 10965, "cylinder": 10966, "conferences": 10967, "##quet": 10968, "peru": 10969, "guns": 10970, "investigation": 10971, "rugby": 10972, "eyeing": 10973, "##oped": 10974, "##uating": 10975, "fierce": 10976, "assists": 10977, "praying": 10978, "tandem": 10979, "ironic": 10980, "camel": 10981, "charts": 10982, "uncover": 10983, "leisure": 10984, "##sso": 10985, "preserved": 10986, "##cards": 10987, "noble": 10988, "lila": 10989, "basin": 10990, "baking": 10991, "90s": 10992, "1750": 10993, "traces": 10994, "##ota": 10995, "shelves": 10996, "paved": 10997, "vibrated": 10998, "##rted": 10999, "leung": 11000, "blasted": 11001, "##bor": 11002, "michigan": 11003, "m2": 11004, "imperative": 11005, "experts": 11006, "schemes": 11007, "225": 11008, "mates": 11009, "##lating": 11010, "magazines": 11011, "gui": 11012, "##trust": 11013, "##wear": 11014, "ghetto": 11015, "managers": 11016, "dustin": 11017, "neglect": 11018, "blush": 11019, "unwilling": 11020, "legally": 11021, "##piration": 11022, "robotic": 11023, "euro": 11024, "county": 11025, "bottles": 11026, "relate": 11027, "ceased": 11028, "##ental": 11029, "##cum": 11030, "feeds": 11031, "rabbit": 11032, "variance": 11033, "##finder": 11034, "gall": 11035, "brazil": 11036, "brushes": 11037, "anomaly": 11038, "widened": 11039, "bid": 11040, "candidate": 11041, "betting": 11042, "ankle": 11043, "##atter": 11044, "commodity": 11045, "diagrams": 11046, "##cci": 11047, "valet": 11048, "confined": 11049, "stocked": 11050, "hunter": 11051, "intermediate": 11052, "jr": 11053, "##bes": 11054, "literal": 11055, "vain": 11056, "planted": 11057, "rays": 11058, "##eding": 11059, "##ooped": 11060, "diary": 11061, "feeding": 11062, "moths": 11063, "scarce": 11064, "convey": 11065, "scout": 11066, "limp": 11067, "intending": 11068, "322": 11069, "droplets": 11070, "striped": 11071, "doll": 11072, "frank": 11073, "rumor": 11074, "##gizing": 11075, "wandering": 11076, "malls": 11077, "cale": 11078, "distinction": 11079, "inherited": 11080, "119": 11081, "##mba": 11082, "flopped": 11083, "rumors": 11084, "recipients": 11085, "arena": 11086, "hottest": 11087, "diagnostic": 11088, "stark": 11089, "##gue": 11090, "terra": 11091, "joining": 11092, "allowance": 11093, "179": 11094, "straightened": 11095, "##cured": 11096, "prospective": 11097, "##ico": 11098, "diego": 11099, "races": 11100, "##bags": 11101, "olive": 11102, "sue": 11103, "hovering": 11104, "hacked": 11105, "relates": 11106, "lok": 11107, "subtly": 11108, "enforced": 11109, "donate": 11110, "disclosed": 11111, "university": 11112, "grinding": 11113, "##ppy": 11114, "reminding": 11115, "folk": 11116, "##izations": 11117, "28th": 11118, "##roid": 11119, "##tial": 11120, "##lage": 11121, "intricate": 11122, "##logic": 11123, "vera": 11124, "##rada": 11125, "calculated": 11126, "vase": 11127, "weakening": 11128, "cadillac": 11129, "obsession": 11130, "western": 11131, "hearted": 11132, "refusing": 11133, "identity": 11134, "##sure": 11135, "lounge": 11136, "partners": 11137, "sniff": 11138, "960": 11139, "dreams": 11140, "solvent": 11141, "misunderstanding": 11142, "##sz": 11143, "mommy": 11144, "##llan": 11145, "##dock": 11146, "showers": 11147, "##iche": 11148, "enforcement": 11149, "##pressive": 11150, "persisted": 11151, "mani": 11152, "prescription": 11153, "scars": 11154, "admiring": 11155, "engaging": 11156, "##gno": 11157, "inspiring": 11158, "classify": 11159, "ana": 11160, "##pper": 11161, "##dot": 11162, "branch": 11163, "##ich": 11164, "healed": 11165, "clocks": 11166, "ceo": 11167, "encouraging": 11168, "entrance": 11169, "blamed": 11170, "tumbled": 11171, "##sil": 11172, "##iso": 11173, "treasure": 11174, "offices": 11175, "toxic": 11176, "spice": 11177, "tubes": 11178, "metals": 11179, "##ower": 11180, "organic": 11181, "camps": 11182, "denied": 11183, "##lines": 11184, "sinks": 11185, "coloration": 11186, "volvo": 11187, "stared": 11188, "moods": 11189, "cliff": 11190, "brilliance": 11191, "##claim": 11192, "tropical": 11193, "domestic": 11194, "consisting": 11195, "paw": 11196, "peacock": 11197, "slapping": 11198, "##dom": 11199, "octopus": 11200, "bribe": 11201, "##xed": 11202, "sampling": 11203, "canals": 11204, "posters": 11205, "suppress": 11206, "disturbed": 11207, "coordination": 11208, "succession": 11209, "disks": 11210, "coincide": 11211, "warmed": 11212, "priorities": 11213, "advent": 11214, "achilles": 11215, "acoustic": 11216, "anxiously": 11217, "preliminary": 11218, "##zzling": 11219, "19th": 11220, "##ham": 11221, "intrusion": 11222, "departure": 11223, "diesel": 11224, "british": 11225, "construct": 11226, "landfill": 11227, "##fers": 11228, "princess": 11229, "##tery": 11230, "evolved": 11231, "spaghetti": 11232, "##mac": 11233, "139": 11234, "##enia": 11235, "london": 11236, "ops": 11237, "##gies": 11238, "dyed": 11239, "deterioration": 11240, "##dev": 11241, "manor": 11242, "pumping": 11243, "twins": 11244, "leaned": 11245, "advocate": 11246, "bait": 11247, "bunk": 11248, "c2": 11249, "##sibility": 11250, "flags": 11251, "judged": 11252, "resides": 11253, "freed": 11254, "hopeless": 11255, "##bbed": 11256, "##non": 11257, "colder": 11258, "##mous": 11259, "lego": 11260, "regain": 11261, "wives": 11262, "##pse": 11263, "##uve": 11264, "achieving": 11265, "steaming": 11266, "111": 11267, "environmentally": 11268, "goin": 11269, "fingered": 11270, "kate": 11271, "##rut": 11272, "harden": 11273, "swelling": 11274, "licenses": 11275, "owed": 11276, "##raz": 11277, "bulbs": 11278, "oven": 11279, "indicative": 11280, "##vered": 11281, "yields": 11282, "##train": 11283, "graded": 11284, "##erated": 11285, "##cede": 11286, "inquired": 11287, "trains": 11288, "cues": 11289, "630": 11290, "##lta": 11291, "merry": 11292, "skinned": 11293, "incapable": 11294, "steals": 11295, "mars": 11296, "swung": 11297, "recurring": 11298, "inlet": 11299, "informing": 11300, "personnel": 11301, "horn": 11302, "highland": 11303, "electrically": 11304, "puerto": 11305, "##chu": 11306, "das": 11307, "introducing": 11308, "campus": 11309, "lessons": 11310, "variables": 11311, "vanished": 11312, "broadcasting": 11313, "perch": 11314, "lea": 11315, "##stead": 11316, "##icing": 11317, "##hil": 11318, "riders": 11319, "licensed": 11320, "swat": 11321, "oregon": 11322, "vietnam": 11323, "groceries": 11324, "##kar": 11325, "scrapped": 11326, "logging": 11327, "persist": 11328, "creativity": 11329, "freeing": 11330, "tale": 11331, "##itte": 11332, "masterpiece": 11333, "permitted": 11334, "accounted": 11335, "jane": 11336, "fluffy": 11337, "scrambling": 11338, "cluster": 11339, "103": 11340, "transported": 11341, "await": 11342, "##eil": 11343, "equation": 11344, "##ifier": 11345, "situ": 11346, "convex": 11347, "##ken": 11348, "spur": 11349, "fascinated": 11350, "xiao": 11351, "utilities": 11352, "##oki": 11353, "patented": 11354, "##fra": 11355, "java": 11356, "730": 11357, "microwave": 11358, "##urable": 11359, "relegated": 11360, "##hear": 11361, "prompting": 11362, "subjects": 11363, "##sar": 11364, "dome": 11365, "armed": 11366, "inclination": 11367, "##roud": 11368, "620": 11369, "seniors": 11370, "houston": 11371, "symptoms": 11372, "sweatshirt": 11373, "##uated": 11374, "adept": 11375, "##dina": 11376, "metric": 11377, "boston": 11378, "faintly": 11379, "mali": 11380, "repeats": 11381, "editor": 11382, "ren": 11383, "stance": 11384, "sane": 11385, "pits": 11386, "evidenced": 11387, "strengthen": 11388, "horses": 11389, "surgical": 11390, "strict": 11391, "demonstrating": 11392, "##ager": 11393, "##uin": 11394, "dallas": 11395, "migrating": 11396, "shredded": 11397, "##ann": 11398, "triumph": 11399, "regulations": 11400, "sinking": 11401, "ecuador": 11402, "##ando": 11403, "dorm": 11404, "midway": 11405, "spelled": 11406, "lodged": 11407, "adapting": 11408, "fetch": 11409, "invasive": 11410, "skepticism": 11411, "jumper": 11412, "sonata": 11413, "##sey": 11414, "##tist": 11415, "potato": 11416, "employ": 11417, "engraving": 11418, "disasters": 11419, "promotes": 11420, "##water": 11421, "argyle": 11422, "migrate": 11423, "spiral": 11424, "fulfilling": 11425, "##ruff": 11426, "##unda": 11427, "flood": 11428, "complexity": 11429, "##gai": 11430, "rally": 11431, "##coat": 11432, "sunken": 11433, "##iate": 11434, "##nos": 11435, "rods": 11436, "grandparents": 11437, "doctors": 11438, "resin": 11439, "abuses": 11440, "union": 11441, "td": 11442, "##mind": 11443, "glancing": 11444, "stan": 11445, "rum": 11446, "27th": 11447, "##tized": 11448, "margins": 11449, "landscaping": 11450, "##gic": 11451, "268": 11452, "fearful": 11453, "leon": 11454, "elvis": 11455, "##lings": 11456, "rewarded": 11457, "spared": 11458, "hacking": 11459, "crude": 11460, "whisper": 11461, "660": 11462, "decades": 11463, "quan": 11464, "grammar": 11465, "tricked": 11466, "slash": 11467, "##ata": 11468, "680": 11469, "targeted": 11470, "clockwise": 11471, "14th": 11472, "##san": 11473, "winding": 11474, "ethernet": 11475, "atlanta": 11476, "exhibits": 11477, "weed": 11478, "##tino": 11479, "##udi": 11480, "graceful": 11481, "baffled": 11482, "interpret": 11483, "##sha": 11484, "taiwan": 11485, "tackle": 11486, "champion": 11487, "##raction": 11488, "officer": 11489, "flee": 11490, "##leen": 11491, "hem": 11492, "##more": 11493, "mg": 11494, "virginia": 11495, "reassured": 11496, "580": 11497, "disastrous": 11498, "aggravated": 11499, "109": 11500, "thief": 11501, "pepper": 11502, "perpetual": 11503, "testify": 11504, "photographic": 11505, "estimates": 11506, "pursue": 11507, "dawn": 11508, "iss": 11509, "furious": 11510, "sleeps": 11511, "grove": 11512, "diva": 11513, "homemade": 11514, "notwithstanding": 11515, "##bid": 11516, "conceived": 11517, "goodwill": 11518, "monstrous": 11519, "mans": 11520, "masks": 11521, "advances": 11522, "sonic": 11523, "composition": 11524, "##oms": 11525, "##mbo": 11526, "shaded": 11527, "##lies": 11528, "motivation": 11529, "incline": 11530, "pertaining": 11531, "charming": 11532, "##bber": 11533, "##lights": 11534, "doom": 11535, "mysterious": 11536, "pumped": 11537, "##rise": 11538, "290": 11539, "##imated": 11540, "peers": 11541, "dismissed": 11542, "1998": 11543, "daisy": 11544, "##boards": 11545, "politely": 11546, "hallway": 11547, "completion": 11548, "legendary": 11549, "highways": 11550, "witnessed": 11551, "anniversary": 11552, "980": 11553, "vanish": 11554, "consisted": 11555, "disruption": 11556, "##ricted": 11557, "contrasts": 11558, "rebel": 11559, "thanked": 11560, "rhyme": 11561, "warriors": 11562, "distinguished": 11563, "tennis": 11564, "numerical": 11565, "bn": 11566, "##otic": 11567, "condom": 11568, "tran": 11569, "##sies": 11570, "suspicion": 11571, "remarked": 11572, "corvette": 11573, "acceleration": 11574, "crew": 11575, "yielded": 11576, "singing": 11577, "corresponds": 11578, "##orous": 11579, "narrowed": 11580, "classified": 11581, "advancement": 11582, "penalty": 11583, "eagerly": 11584, "canyon": 11585, "1990": 11586, "forecast": 11587, "coats": 11588, "gasp": 11589, "elongated": 11590, "maxi": 11591, "identifiable": 11592, "rattled": 11593, "resolutions": 11594, "liability": 11595, "conflicting": 11596, "alternately": 11597, "transformed": 11598, "supplemental": 11599, "casting": 11600, "joins": 11601, "brooks": 11602, "sparks": 11603, "indirect": 11604, "offense": 11605, "##rift": 11606, "tissues": 11607, "17th": 11608, "rights": 11609, "population": 11610, "havoc": 11611, "threat": 11612, "##cular": 11613, "profession": 11614, "authorization": 11615, "society": 11616, "rico": 11617, "crowds": 11618, "sap": 11619, "val": 11620, "darkening": 11621, "tak": 11622, "determines": 11623, "##open": 11624, "scrutiny": 11625, "invited": 11626, "1810": 11627, "railroad": 11628, "##raf": 11629, "han": 11630, "190": 11631, "goals": 11632, "bedrooms": 11633, "670": 11634, "bundles": 11635, "conversely": 11636, "representing": 11637, "dogg": 11638, "communicated": 11639, "##iring": 11640, "rider": 11641, "doorstep": 11642, "restriction": 11643, "thud": 11644, "rearview": 11645, "passion": 11646, "##row": 11647, "liable": 11648, "vt": 11649, "m3": 11650, "reactive": 11651, "stumble": 11652, "brad": 11653, "sleeper": 11654, "exponential": 11655, "##eet": 11656, "richard": 11657, "bordering": 11658, "halloween": 11659, "##chan": 11660, "##emi": 11661, "singapore": 11662, "newspaper": 11663, "disguise": 11664, "cobb": 11665, "##word": 11666, "deception": 11667, "460": 11668, "mundane": 11669, "jun": 11670, "authentication": 11671, "premise": 11672, "irony": 11673, "renewal": 11674, "ling": 11675, "portrayed": 11676, "correspondence": 11677, "##aly": 11678, "realise": 11679, "frontier": 11680, "punching": 11681, "vowed": 11682, "acquisition": 11683, "transactions": 11684, "##balls": 11685, "admired": 11686, "np": 11687, "afar": 11688, "clerk": 11689, "interests": 11690, "income": 11691, "homer": 11692, "##rel": 11693, "relations": 11694, "obscene": 11695, "imagining": 11696, "##dded": 11697, "coincidentally": 11698, "cass": 11699, "inverted": 11700, "##mium": 11701, "chill": 11702, "mango": 11703, "##nished": 11704, "29th": 11705, "interactions": 11706, "fares": 11707, "##zard": 11708, "##gum": 11709, "distressed": 11710, "##lated": 11711, "vega": 11712, "dysfunction": 11713, "floated": 11714, "sauce": 11715, "swam": 11716, "elephants": 11717, "clans": 11718, "##mine": 11719, "regarded": 11720, "##elo": 11721, "regulated": 11722, "waving": 11723, "jay": 11724, "##stra": 11725, "snoop": 11726, "export": 11727, "##ille": 11728, "script": 11729, "brisk": 11730, "##falls": 11731, "yelling": 11732, "echoes": 11733, "nay": 11734, "successor": 11735, "arts": 11736, "execute": 11737, "##type": 11738, "vocals": 11739, "crime": 11740, "owing": 11741, "##das": 11742, "liter": 11743, "segments": 11744, "##rar": 11745, "posed": 11746, "ns": 11747, "appealed": 11748, "taxi": 11749, "gasoline": 11750, "blinked": 11751, "gingerly": 11752, "spat": 11753, "conscience": 11754, "yearly": 11755, "ireland": 11756, "##broken": 11757, "succeeds": 11758, "##cen": 11759, "rocked": 11760, "regions": 11761, "rejects": 11762, "##hre": 11763, "phil": 11764, "standardized": 11765, "##ders": 11766, "##rier": 11767, "sandstone": 11768, "sworn": 11769, "investigating": 11770, "395": 11771, "allegedly": 11772, "uniformly": 11773, "pedal": 11774, "biting": 11775, "creek": 11776, "##write": 11777, "##law": 11778, "##rade": 11779, "##llen": 11780, "travelled": 11781, "ignorant": 11782, "mont": 11783, "campaign": 11784, "##ray": 11785, "##rst": 11786, "soup": 11787, "expertise": 11788, "emerge": 11789, "pere": 11790, "hz": 11791, "##brush": 11792, "##ami": 11793, "##rring": 11794, "sixty": 11795, "25th": 11796, "annual": 11797, "##eca": 11798, "extremes": 11799, "begs": 11800, "shaken": 11801, "clasped": 11802, "bali": 11803, "kitten": 11804, "##gna": 11805, "atomic": 11806, "illuminating": 11807, "loser": 11808, "##han": 11809, "stallion": 11810, "constructive": 11811, "##dent": 11812, "cartoons": 11813, "flared": 11814, "simulated": 11815, "yourselves": 11816, "tailor": 11817, "inactive": 11818, "bitter": 11819, "##vine": 11820, "fund": 11821, "listeners": 11822, "spike": 11823, "##cis": 11824, "gateway": 11825, "##rke": 11826, "distinctly": 11827, "selective": 11828, "veteran": 11829, "representatives": 11830, "finn": 11831, "corrupted": 11832, "##die": 11833, "bulls": 11834, "##nat": 11835, "probe": 11836, "foundation": 11837, "expedition": 11838, "cruising": 11839, "concurrently": 11840, "##oco": 11841, "strung": 11842, "##reate": 11843, "infant": 11844, "protege": 11845, "relocate": 11846, "interrupting": 11847, "##icate": 11848, "##nica": 11849, "##zziness": 11850, "alta": 11851, "peculiar": 11852, "barr": 11853, "##itating": 11854, "casts": 11855, "painter": 11856, "coupe": 11857, "restoring": 11858, "zombies": 11859, "##powering": 11860, "periodic": 11861, "linger": 11862, "pedestal": 11863, "##mage": 11864, "stresses": 11865, "113": 11866, "##tha": 11867, "##ain": 11868, "##rath": 11869, "canadian": 11870, "drum": 11871, "nasa": 11872, "loaned": 11873, "##jet": 11874, "rational": 11875, "snail": 11876, "carolina": 11877, "favored": 11878, "cher": 11879, "##opped": 11880, "snack": 11881, "perceive": 11882, "chick": 11883, "sugar": 11884, "sheep": 11885, "discussing": 11886, "##isse": 11887, "triggering": 11888, "virtue": 11889, "specialist": 11890, "recognizable": 11891, "respected": 11892, "greta": 11893, "historically": 11894, "##ffy": 11895, "bliss": 11896, "abc": 11897, "v6": 11898, "sidekick": 11899, "rumored": 11900, "embarrassment": 11901, "temptation": 11902, "treats": 11903, "resident": 11904, "##oge": 11905, "##eon": 11906, "argentina": 11907, "shortened": 11908, "praised": 11909, "condo": 11910, "##rds": 11911, "learns": 11912, "resembling": 11913, "##ffer": 11914, "##ony": 11915, "##pone": 11916, "##house": 11917, "scientist": 11918, "telecom": 11919, "jets": 11920, "handwriting": 11921, "##aha": 11922, "generator": 11923, "composing": 11924, "##num": 11925, "demos": 11926, "russian": 11927, "conducting": 11928, "##ites": 11929, "##mot": 11930, "donated": 11931, "instinct": 11932, "132": 11933, "weathered": 11934, "accelerate": 11935, "unpredictable": 11936, "harbor": 11937, "##hide": 11938, "honors": 11939, "underground": 11940, "zombie": 11941, "honoring": 11942, "agrees": 11943, "vicinity": 11944, "lion": 11945, "wealth": 11946, "sail": 11947, "populated": 11948, "teaching": 11949, "gentleman": 11950, "railing": 11951, "##vas": 11952, "agents": 11953, "stump": 11954, "evolve": 11955, "dating": 11956, "olympus": 11957, "##ska": 11958, "##ours": 11959, "##sul": 11960, "genre": 11961, "fairy": 11962, "references": 11963, "swallow": 11964, "graduated": 11965, "stroke": 11966, "seventy": 11967, "structurally": 11968, "##cker": 11969, "trends": 11970, "realizes": 11971, "23rd": 11972, "##bin": 11973, "##oping": 11974, "ignorance": 11975, "ionic": 11976, "optimization": 11977, "rented": 11978, "##lde": 11979, "georgia": 11980, "detrimental": 11981, "ud": 11982, "##rda": 11983, "ale": 11984, "forceful": 11985, "##cala": 11986, "scaled": 11987, "ron": 11988, "admission": 11989, "paul": 11990, "altering": 11991, "immense": 11992, "corrections": 11993, "midday": 11994, "##lide": 11995, "stares": 11996, "greyish": 11997, "sahara": 11998, "awarded": 11999, "134": 12000, "ferrari": 12001, "cylindrical": 12002, "vip": 12003, "catalyst": 12004, "averages": 12005, "barn": 12006, "##ark": 12007, "##cite": 12008, "acid": 12009, "##xes": 12010, "prospect": 12011, "##urbed": 12012, "devastated": 12013, "shipments": 12014, "##som": 12015, "duran": 12016, "revisions": 12017, "reverted": 12018, "##gated": 12019, "junction": 12020, "helicopter": 12021, "siblings": 12022, "unsuccessfully": 12023, "induced": 12024, "freaks": 12025, "arguments": 12026, "quotes": 12027, "credits": 12028, "##nsor": 12029, "wagon": 12030, "reliefs": 12031, "obstacles": 12032, "##keeper": 12033, "eyed": 12034, "presentations": 12035, "stir": 12036, "##ller": 12037, "rejecting": 12038, "episodes": 12039, "recovered": 12040, "violently": 12041, "tumbling": 12042, "lantern": 12043, "##ope": 12044, "optic": 12045, "##icle": 12046, "##oked": 12047, "jokes": 12048, "scans": 12049, "##alle": 12050, "thirteen": 12051, "##ester": 12052, "stabilized": 12053, "jesus": 12054, "customs": 12055, "dangers": 12056, "regulator": 12057, "alarmed": 12058, "inclusive": 12059, "reckless": 12060, "educational": 12061, "deposit": 12062, "##mbs": 12063, "rb": 12064, "phenomenon": 12065, "##uda": 12066, "restricting": 12067, "playful": 12068, "les": 12069, "earthquake": 12070, "threshold": 12071, "traditionally": 12072, "adventurous": 12073, "sorting": 12074, "refrain": 12075, "##oda": 12076, "##eres": 12077, "dow": 12078, "scoop": 12079, "bree": 12080, "##quisite": 12081, "##a1": 12082, "##layer": 12083, "clouded": 12084, "showcasing": 12085, "rusty": 12086, "capped": 12087, "entertainer": 12088, "##master": 12089, "newborn": 12090, "waits": 12091, "##elli": 12092, "sirius": 12093, "orb": 12094, "aft": 12095, "necks": 12096, "greedy": 12097, "elevator": 12098, "jones": 12099, "##uet": 12100, "##dar": 12101, "deer": 12102, "cavity": 12103, "syn": 12104, "speculation": 12105, "merchants": 12106, "distributors": 12107, "lobe": 12108, "hal": 12109, "exhibited": 12110, "authority": 12111, "cried": 12112, "ranch": 12113, "exemplary": 12114, "ars": 12115, "##gal": 12116, "fascinating": 12117, "unrest": 12118, "##rle": 12119, "experimentation": 12120, "##zen": 12121, "announcements": 12122, "duties": 12123, "verb": 12124, "pillows": 12125, "lamb": 12126, "smiling": 12127, "##qual": 12128, "fest": 12129, "associates": 12130, "##rgan": 12131, "adored": 12132, "globe": 12133, "advertisements": 12134, "##points": 12135, "tragic": 12136, "##mation": 12137, "stipulated": 12138, "ross": 12139, "electrons": 12140, "##ules": 12141, "reside": 12142, "##iko": 12143, "ally": 12144, "flores": 12145, "gage": 12146, "squash": 12147, "bush": 12148, "##iki": 12149, "critically": 12150, "sar": 12151, "##fat": 12152, "##bilities": 12153, "episode": 12154, "baseline": 12155, "abrupt": 12156, "##roids": 12157, "destined": 12158, "concentration": 12159, "flame": 12160, "spontaneous": 12161, "##yon": 12162, "curly": 12163, "progressed": 12164, "awards": 12165, "alligator": 12166, "strands": 12167, "consoles": 12168, "mcdonald": 12169, "glacier": 12170, "##plication": 12171, "ml": 12172, "airborne": 12173, "electronically": 12174, "chrysler": 12175, "guru": 12176, "pg": 12177, "timeline": 12178, "coupling": 12179, "##het": 12180, "lau": 12181, "earliest": 12182, "##child": 12183, "wheelchair": 12184, "##illy": 12185, "##mise": 12186, "##ran": 12187, "ape": 12188, "1b": 12189, "unite": 12190, "lingering": 12191, "##ergy": 12192, "bloody": 12193, "stadium": 12194, "devoted": 12195, "##fighter": 12196, "premier": 12197, "##yer": 12198, "335": 12199, "##sus": 12200, "roses": 12201, "rift": 12202, "##cher": 12203, "transformers": 12204, "meaningless": 12205, "nearing": 12206, "mole": 12207, "riddle": 12208, "temple": 12209, "issuing": 12210, "##zoo": 12211, "disposed": 12212, "##imate": 12213, "tango": 12214, "advising": 12215, "##ulu": 12216, "earrings": 12217, "surgeon": 12218, "instability": 12219, "mana": 12220, "reportedly": 12221, "philosophy": 12222, "database": 12223, "collapsing": 12224, "##aco": 12225, "880": 12226, "conflicts": 12227, "reform": 12228, "pseudo": 12229, "##lts": 12230, "promotions": 12231, "thailand": 12232, "crow": 12233, "dispatch": 12234, "hc": 12235, "practicing": 12236, "abruptly": 12237, "hbo": 12238, "##cloth": 12239, "viz": 12240, "##tious": 12241, "aus": 12242, "creepy": 12243, "ranger": 12244, "committing": 12245, "##rts": 12246, "mating": 12247, "clones": 12248, "occupies": 12249, "porsche": 12250, "explored": 12251, "realization": 12252, "aide": 12253, "sword": 12254, "hardcover": 12255, "makeshift": 12256, "doorway": 12257, "injured": 12258, "##ega": 12259, "formidable": 12260, "##asa": 12261, "preferring": 12262, "wikipedia": 12263, "baggage": 12264, "honeymoon": 12265, "##zza": 12266, "jin": 12267, "observing": 12268, "punish": 12269, "grains": 12270, "eagle": 12271, "proxy": 12272, "economically": 12273, "drowning": 12274, "heavens": 12275, "##ape": 12276, "renewed": 12277, "ribbons": 12278, "viewpoint": 12279, "##nen": 12280, "titled": 12281, "delicately": 12282, "islands": 12283, "slopes": 12284, "rebranded": 12285, "##nis": 12286, "division": 12287, "depict": 12288, "furry": 12289, "hash": 12290, "##nick": 12291,
[...]
